{"bern": 16595, "garlic": 20548, "##lford": 23211, "##nath": 16207, "yukon": 19898, "bash": 24234, "v": 1058, "1695": 29140, "figured": 6618, "interpret": 17841, "best": 2190, "##sion": 10992, "sleeper": 24372, "pendleton": 24349, "ss": 7020, "tri": 13012, "crazy": 4689, "footballer": 4362, "bedroom": 5010, "organised": 7362, "definition": 6210, "[unused257]": 262, "martinique": 29365, "como": 18609, "1747": 24522, "##force": 14821, "and": 1998, "robbie": 12289, "dismiss": 19776, "pei": 26850, "profound": 13769, "##\u3078": 30201, "usb": 18833, "barrage": 19359, "himalayan": 28333, "[unused543]": 548, "optimistic": 21931, "treated": 5845, "beetles": 14538, "authorized": 9362, "charlemagne": 27257, "mw": 12464, "locations": 5269, "##go": 3995, "gunslinger": 29274, "patent": 7353, "##hopper": 27330, "commentators": 15957, "piloted": 27220, "methodology": 16134, "mold": 18282, "##resses": 25932, "patty": 17798, "shook": 3184, "##bu": 8569, "hybrids": 23376, "afghan": 12632, "ladies": 6456, "inconsistent": 20316, "sell": 5271, "documented": 8832, "breach": 12510, "##aghan": 26685, "associates": 9228, "asian": 4004, "nietzsche": 28898, "physically": 8186, "contingent": 15445, "downs": 12482, "allan": 8926, "savage": 9576, "\u53e4": 1789, "mama": 9588, "fire": 2543, "##\u00b3": 18107, "jurgen": 23171, "rear": 4373, "terminals": 17703, "thornton": 14630, "\u5fc3": 1849, "##\u30c8": 30240, "alike": 11455, "##most": 11800, "laden": 14887, "forge": 15681, "repairing": 26296, "##rgan": 16998, "sting": 12072, "historian": 5272, "strengthened": 13949, "consultant": 8930, "rabbits": 20403, "##dit": 23194, "dam": 5477, "nape": 23634, "underway": 14128, "##ac": 6305, "judicial": 8268, "margot": 29210, "[unused334]": 339, "cecilia": 18459, "usable": 24013, "shouldered": 29383, "persuasion": 27577, "christians": 8135, "peninsula": 6000, "##meric": 25531, "##\u00a8": 29651, "aryan": 26030, "##van": 6212, "argent": 23157, "##crats": 23423, "acknowledge": 13399, "dorsal": 12759, "uneasy": 15491, "chores": 27091, "kristen": 22435, "legislator": 22964, "harshly": 21052, "jasper": 14791, "shivers": 28464, "millions": 8817, "mythical": 19336, "producing": 5155, "50th": 12951, "amar": 23204, "opinion": 5448, "mir": 14719, "twitching": 25402, "##auer": 21126, "[unused291]": 296, "ears": 5551, "imagine": 5674, "rails": 15168, "##flict": 29301, "squash": 18794, "##furt": 24428, "anatomy": 13336, "welterweight": 20882, "brandon": 8825, "footprint": 24319, "stretches": 14082, "events": 2824, "##\u05d4": 29128, "##tively": 25499, "partners": 5826, "mock": 12934, "##rra": 11335, "simultaneous": 17424, "[unused61]": 62, "while": 2096, "hits": 4978, "bernie": 15941, "##lke": 28143, "subdistrict": 24150, "flutter": 23638, "##neck": 18278, "##ti": 3775, "wants": 4122, "distrust": 29245, "##hian": 14204, "##uti": 21823, "##tlan": 28922, "##vert": 16874, "[unused129]": 134, "interpreted": 10009, "allergic": 27395, "assassinated": 16370, "chooses": 15867, "million": 2454, "parameter": 16381, "volunteer": 6951, "commodities": 21955, "serialized": 27289, "transports": 19003, "##rigue": 27611, "spell": 6297, "rebounds": 11049, "advance": 5083, "aaa": 13360, "stout": 18890, "catalyst": 16771, "everything": 2673, "doubled": 11515, "wilkins": 22745, "therefore": 3568, "signifies": 27353, "fragile": 13072, "poland": 3735, "##kovsky": 23829, "rosary": 28291, "##tz": 5753, "kerala": 8935, "blacksmith": 20987, "daryl": 22514, "recent": 3522, "wildly": 13544, "belfast": 10330, "coordinator": 10669, "galilee": 28928, "owls": 22388, "awkwardly": 18822, "dinner": 4596, "securities": 12012, "grabbed": 4046, "##cular": 15431, "0": 1014, "cassette": 13903, "[unused147]": 152, "albania": 10407, "kgb": 25467, "musica": 21137, "centralized": 22493, "##gar": 6843, "creek": 3636, "gm": 13938, "jersey": 3933, "sculptors": 28417, "##orum": 20527, "combining": 11566, "earning": 7414, "barrett": 12712, "octave": 21817, "1754": 22593, "bohemian": 18063, "[unused735]": 740, "breathing": 5505, "isabel": 11648, "danielle": 18490, "166": 18610, "monastic": 17361, "battles": 7465, "poll": 8554, "regulatory": 10738, "skipped": 16791, "kindness": 16056, "followers": 8771, "jalan": 28410, "##uld": 21285, "famously": 18172, "cfa": 28125, "treatment": 3949, "provide": 3073, "kira": 15163, "makeup": 5789, "##53": 22275, "tells": 4136, "##\u52dd": 30306, "available": 2800, "herman": 11458, "granada": 16553, "tablet": 13855, "297": 27502, "captivity": 16187, "##ery": 7301, "##uate": 20598, "[unused171]": 176, "[unused912]": 917, "refused": 4188, "uncovered": 14486, "contamination": 18701, "##osta": 28696, "[unused438]": 443, "ukraine": 5924, "kaiser": 15676, "afi": 28697, "abundant": 12990, "parent": 6687, "quota": 20563, "racecourse": 15948, "bypass": 11826, "expands": 24545, "opens": 7480, "happy": 3407, "kassel": 27884, "productivity": 15836, "risked": 22374, "osman": 28609, "mercury": 8714, "til": 18681, "\u6226": 1856, "seen": 2464, "swept": 7260, "##borough": 10235, "\u5730": 1802, "bulbs": 25548, "fukuoka": 26998, "plates": 7766, "davidson": 12017, "cherry": 9115, "schedule": 6134, "everywhere": 7249, "one": 2028, "filtered": 21839, "glee": 18874, "##\u093f": 29877, "adolph": 28564, "isla": 25340, "##l": 2140, "meantime": 12507, "mathematics": 5597, "uses": 3594, "##arium": 17285, "##ons": 5644, "[unused374]": 379, "algorithm": 9896, "dyke": 22212, "patented": 16719, "compact": 9233, "tips": 10247, "toned": 27604, "janeiro": 11497, "collected": 5067, "universe": 5304, "##asa": 16782, "##wear": 16689, "clicks": 29225, "mph": 5601, "shang": 29382, "gear": 6718, "##zy": 9096, "1757": 22621, "##and": 5685, "roth": 12211, "##dor": 7983, "fleeing": 14070, "serving": 3529, "[unused42]": 43, "##obe": 20891, "dong": 11947, "##ua": 6692, "322": 23768, "hunters": 9624, "sargent": 27599, "220": 10545, "olson": 21583, "exile": 8340, "##ghton": 21763, "cambridgeshire": 24197, "creep": 19815, "unsafe": 25135, "unless": 4983, "anna": 4698, "##nae": 17452, "clashes": 17783, "guaranteed": 12361, "strategies": 9942, "porcelain": 17767, "\u02e3": 1153, "##\u4e00": 30266, "##ining": 24002, "##\u03bb": 29727, "[unused980]": 985, "##rona": 26788, "description": 6412, "fiesta": 24050, "hierarchical": 25835, "##kyu": 23076, "danes": 27476, "plaza": 8232, "alexia": 21683, "battered": 17548, "semester": 13609, "cemeteries": 20973, "diseases": 7870, "backstage": 20212, "##tones": 11115, "anthropological": 28395, "orchestral": 13533, "radiation": 8249, "toro": 23790, "\u2076": 1540, "##\u30d8": 30247, "broad": 5041, "\u0268": 1118, "[unused233]": 238, "franco": 9341, "##/": 29626, "daniela": 28541, "label": 3830, "divers": 18612, "heritage": 4348, "##tu": 8525, "oh": 2821, "symphony": 6189, "##ques": 10997, "630": 23609, "pagoda": 27387, "screen": 3898, "exchanged": 10573, "separating": 14443, "fleetwood": 23866, "fugitive": 21329, "announcement": 8874, "##oue": 27872, "night": 2305, "[unused674]": 679, "fiba": 13651, "moons": 23377, "taken": 2579, "violent": 6355, "casey": 9036, "vols": 18709, "##cated": 12921, "footed": 28856, "1849": 9037, "brow": 8306, "ari": 10488, "convicted": 7979, "clapping": 27104, "inuit": 25179, "conglomerate": 22453, "[unused765]": 770, "[unused905]": 910, "africans": 18076, "therese": 25598, "ethiopian": 15101, "debate": 5981, "1660": 17954, "shout": 11245, "##\u06ba": 29843, "\u738b": 1909, "[unused468]": 473, "##cellular": 16882, "\u3093": 1691, "111": 11118, "whitman": 21311, "firearms": 13780, "cracks": 15288, "scratches": 25980, "stakes": 7533, "socially": 14286, "campaigned": 16196, "mab": 26661, "peacefully": 21614, "continuation": 13633, "communal": 15029, "judges": 6794, "neglect": 19046, "1699": 28718, "cornish": 17797, "eclectic": 20551, "[unused764]": 769, "beliefs": 9029, "\u00a1": 1067, "##trust": 24669, "##a": 2050, "related": 3141, "detailed": 6851, "gladys": 22386, "trader": 17667, "punjabi": 17498, "stereo": 12991, "rashid": 22080, "ventured": 20510, "withdrawn": 9633, "zulu": 27359, "1911": 5184, "dea": 26709, "evidenced": 21328, "ava": 10927, "##\u961d": 30496, "pinned": 11807, "holder": 9111, "sm": 15488, "der": 4315, "destination": 7688, "immense": 14269, "knelt": 12804, "treaties": 16013, "##marks": 27373, "tolkien": 23602, "pharmacy": 13882, "tea": 5572, "##wyn": 11761, "mermaid": 22322, "228": 22238, "415": 24690, "pine": 7222, "edible": 21006, "##ctors": 24817, "##pass": 15194, "displeasure": 28606, "penetrate": 19136, "moe": 22078, "import": 12324, "rufus": 18316, "fatigue": 16342, "##ecin": 28191, "mute": 20101, "participation": 6577, "stomach": 4308, "sharpened": 26694, "corinne": 26879, "##bag": 16078, "bouncing": 16361, "amongst": 5921, "electrically": 29103, "dominance": 13811, "chewing": 17492, "relationship": 3276, "9": 1023, "missouri": 5284, "preparations": 12929, "madison": 7063, "##line": 4179, "runners": 7190, "[unused378]": 383, "broadcasting": 5062, "axel": 18586, "seemingly": 9428, "tobacco": 9098, "tokyo": 5522, "topological": 24309, "rodrigo": 18943, "whatsoever": 18971, "dodge": 11898, "##zman": 24340, "stressed": 13233, "concluding": 16228, "165": 13913, "frazier": 26551, "##lson": 14881, "[unused396]": 401, "##ro": 3217, "blinked": 7948, "adriatic": 23400, "boomed": 28908, "##hers": 22328, "horrific": 23512, "tickets": 9735, "glue": 25238, "neck": 3300, "establishment": 5069, "american": 2137, "copper": 6967, "reputation": 5891, "##nce": 5897, "##umi": 12717, "early": 2220, "prophets": 23172, "[unused325]": 330, "mum": 12954, "estrada": 26482, "nazareth": 27192, "offensive": 5805, "destroying": 9846, "interesting": 5875, "turquoise": 28653, "life": 2166, "predict": 16014, "consolidation": 17439, "[unused436]": 441, "procession": 14385, "shuffled": 18764, "\u570b": 1800, "darkness": 4768, "barangay": 20937, "genuine": 10218, "denmark": 5842, "smug": 20673, "chips": 11772, "redesign": 25136, "ducks": 14875, "02": 6185, "councils": 10784, "##\u85e4": 30470, "sir": 2909, "unrest": 16591, "chickens": 21868, "foul": 12487, "cassandra": 15609, "sweet": 4086, "internal": 4722, "spin": 6714, "policies": 6043, "daddy": 8600, "swimmer": 13361, "##\u0627\u0646": 18511, "gail": 18576, "formations": 13197, "murmur": 20227, "unstable": 14480, "##tic": 4588, "chains": 8859, "ribbon": 10557, "goat": 13555, "##ah": 4430, "[unused173]": 178, "illustrations": 11249, "convincing": 13359, "recovery": 7233, "giles": 13287, "huang": 15469, "##rud": 28121, "girl": 2611, "perkins": 13601, "historians": 7862, "70th": 26934, "egg": 8288, "ascot": 29036, "[unused431]": 436, "960": 26637, "1703": 28366, "mani": 23624, "supplies": 6067, "##pon": 26029, "centrally": 25497, "afghanistan": 7041, "keystone": 22271, "291": 27173, "brushing": 12766, "robotic": 20478, "##lessness": 24913, "remaining": 3588, "##inga": 28234, "clocks": 20940, "decor": 25545, "supply": 4425, "rosenthal": 29062, "bonus": 6781, "assess": 14358, "fascination": 18987, "cheng": 15898, "willow": 11940, "buffer": 17698, "continues": 4247, "pry": 29198, "roommate": 18328, "##\u6751": 30404, "##rite": 17625, "annum": 28907, "believing": 8929, "confined": 12302, "convention": 4680, "experiments": 7885, "interpreting": 25455, "kinda": 17704, "lester": 14131, "marxism": 27255, "relay": 8846, "replay": 15712, "trailers": 21389, "violate": 23640, "volga": 26459, "wipe": 13387, "breakfast": 6350, "##\u0e25": 29954, "bon": 14753, "bot": 28516, "preached": 21491, "1400": 20652, "##mist": 23738, "rotterdam": 15632, "widely": 4235, "forty": 5659, "bella": 12101, "unable": 4039, "[unused755]": 760, "specialization": 28031, "kazan": 22001, "supported": 3569, "meat": 6240, "rosy": 26851, "##th": 2705, "primitive": 10968, "\u05e0": 1257, "##han": 4819, "olsen": 18997, "##glers": 25555, "heats": 18559, "narrows": 25142, "molded": 27992, "escapes": 12976, "retrieve": 12850, "##loe": 26846, "stoke": 13299, "prostate": 25086, "record": 2501, "\u884c": 1945, "hoped": 5113, "woman": 2450, "regents": 22832, "tibetan": 11953, "##ping": 4691, "radial": 15255, "basic": 3937, "wat": 28194, "60s": 20341, "riches": 26768, "##weight": 11179, "##man": 2386, "actively": 8851, "\u2081": 1548, "bearing": 7682, "saxophone": 8283, "rebellious": 22614, "vulcan": 25993, "semantic": 21641, "together": 2362, "[unused746]": 751, "turkey": 4977, "une": 16655, "mysteriously": 29239, "amber": 8994, "visitation": 28877, "recognition": 5038, "[unused323]": 328, "belief": 6772, "theories": 8106, "trip": 4440, "evergreen": 16899, "canned": 27141, "[unused225]": 230, "fearless": 22518, "endorsed": 11763, "##ul": 5313, "wisdom": 9866, "carrie": 13223, "philosopher": 9667, "emergencies": 26360, "onto": 3031, "rose": 3123, "##lers": 12910, "pc": 7473, "##tek": 23125, "moon": 4231, "unavailable": 20165, "comfort": 7216, "cummings": 20750, "improve": 5335, "##zar": 9057, "wow": 10166, "caravan": 17184, "rex": 10151, "here": 2182, "[unused992]": 997, "ios": 16380, "surveyor": 17169, "ice": 3256, "restrained": 19868, "license": 6105, "realm": 8391, "remedy": 19519, "##\u22121": 27944, "1964": 3546, "position": 2597, "weston": 12755, "inhibition": 23586, "halloween": 14414, "2004": 2432, "##or": 2953, "lands": 4915, "trombone": 13914, "odessa": 19693, "##ross": 25725, "##\u0638": 29829, "\u2093": 1563, "valencia": 13083, "emotional": 6832, "attendees": 19973, "simone": 14072, "hale": 13084, "okay": 3100, "kazakh": 25907, "\u11af": 1486, "dough": 23126, "atmospheric": 12483, "enrichment": 27226, "taboo": 27505, "somme": 25158, "##ended": 21945, "##ook": 14659, "[unused326]": 331, "swollen": 13408, "##abad": 10542, "bucks": 14189, "assured": 8916, "cincinnati": 7797, "congo": 9030, "spectroscopy": 25458, "##\ufb01": 30510, "osborn": 26999, "##dae": 6858, "exits": 16639, "obsession": 17418, "[unused967]": 972, "shortlisted": 21353, "clicking": 22042, "shelly": 28360, "asleep": 6680, "pointer": 20884, "reflex": 22259, "sv": 17917, "toledo": 13163, "quantity": 11712, "readily": 12192, "martyrs": 18945, "ge": 16216, "inherent": 16112, "electrode": 28688, "intrusion": 24554, "bangor": 21895, "middlesex": 13654, "oaks": 13396, "stampede": 29375, "twitter": 10474, "necessitated": 29611, "fragrance": 24980, "infants": 16725, "preventing": 10723, "tramway": 17050, "endurance": 14280, "\u0f66": 1436, "jurisprudence": 24697, "[unused128]": 133, "##gnant": 27881, "government": 2231, "[unused1]": 2, "##till": 28345, "annie": 8194, "independence": 4336, "cracked": 9630, "##lock": 7878, "babies": 10834, "many": 2116, "##gio": 11411, "ghana": 9701, "ottomans": 17774, "arranged": 5412, "augustus": 11668, "pipeline": 13117, "##rke": 25074, "diplomatic": 8041, "gang": 6080, "mercedes": 10793, "newborn": 20662, "workout": 27090, "138": 15028, "keyboards": 6269, "sonic": 12728, "subcommittee": 18052, "february": 2337, "either": 2593, "aromatic": 25496, "capsule": 18269, "cater": 23488, "##nge": 15465, "##xy": 18037, "compassionate": 29353, "fisted": 28273, "properly": 7919, "hesitated": 9369, "tran": 25283, "edison": 17046, "wind": 3612, "hart": 7530, "38": 4229, "##ack": 8684, "perform": 4685, "##hold": 12640, "clap": 28618, "sets": 4520, "opium": 21075, "##tama": 28282, "applied": 4162, "accordion": 19060, "##k": 2243, "scriptures": 22481, "221": 19594, "closet": 9346, "waterway": 23668, "recognizes": 14600, "coincidence": 16507, "capt": 14408, "investors": 9387, "attracts": 17771, "download": 8816, "pronunciation": 15498, "smeared": 25400, "ferry": 7115, "squadrons": 11435, "dali": 29095, "stark": 9762, "##rius": 13245, "dammit": 20878, "##ido": 13820, "lastly": 22267, "spat": 14690, "truncated": 25449, "taunton": 28181, "##log": 21197, "dragged": 7944, "1806": 12518, "rounded": 8352, "sudanese": 25603, "size": 2946, "##\u3009": 30164, "conquered": 11438, "##uance": 26620, "fairfield": 18986, "##nc": 12273, "engine": 3194, "anglo": 7819, "anita": 12918, "goats": 17977, "honors": 7836, "opened": 2441, "pike": 12694, "oboe": 22523, "##\u0f0b": 29960, "\u30a1": 1692, "rpm": 11575, "121": 12606, "##bal": 10264, "armenians": 20337, "canteen": 26449, "keating": 25865, "morally": 28980, "withdrawing": 21779, "accidents": 13436, "dispute": 7593, "aba": 19557, "##enbach": 21409, "lacrosse": 13488, "sped": 16887, "unchanged": 15704, "##elis": 29282, "pillar": 14809, "publishing": 4640, "ready": 3201, "survivors": 8643, "upward": 10745, "##idae": 6096, "##hips": 19801, "##mba": 11201, "puerto": 5984, "[unused198]": 203, "balloons": 22163, "priory": 14284, "##erence": 20935, "##\u0255": 29680, "promptly": 13364, "edwards": 7380, "gypsy": 16006, "##sma": 26212, "dictatorship": 18944, "##rangle": 21476, "##\u043c": 29745, "brewers": 20007, "mbe": 20301, "emitted": 22627, "stockholm": 8947, "whorls": 25637, "converted": 4991, "scratched": 15047, "##dian": 11692, "belonged": 6272, "volume": 3872, "erskine": 27139, "4a": 26424, "km\u00b2": 3186, "##air": 11215, "acute": 11325, "reminds": 15537, "yun": 22854, "##rly": 21194, "##week": 28075, "hurricane": 7064, "swiss": 5364, "ghent": 24202, "koppen": 20139, "chosen": 4217, "fm": 4718, "marcos": 14810, "creepy": 17109, "heavier": 11907, "bosnian": 16163, "brooding": 28902, "promotes": 14067, "##\u05e9": 29812, "richly": 26502, "[unused602]": 607, "##edge": 24225, "replaced": 2999, "##nto": 13663, "##ucher": 22368, "wide": 2898, "entrepreneurship": 20213, "souls": 9293, "usher": 20774, "motion": 4367, "##gram": 13113, "vector": 9207, "tendency": 11765, "\u30a3": 1694, "##well": 4381, "bride": 8959, "chaotic": 19633, "consisting": 5398, "##gat": 20697, "banned": 7917, "braking": 24427, "engagement": 8147, "grassy": 22221, "flames": 7311, "amp": 23713, "nt": 23961, "regis": 20588, "##\u110f": 30002, "meditation": 13804, "comprising": 9605, "revolution": 4329, "information": 2592, "annoying": 15703, "sympathy": 11883, "runoff": 19550, "33": 3943, "passionate": 13459, "##dp": 18927, "ymca": 26866, "climate": 4785, "joined": 2587, "deacon": 14845, "pauline": 15595, "camp": 3409, "profession": 9518, "perspective": 7339, "boulevard": 8459, "designated": 4351, "hammond": 11309, "class": 2465, "137": 14989, "\u2022": 1528, "olympian": 25977, "horsepower": 15149, "##ensburg": 28812, "planners": 27155, "embarrassing": 16436, "realises": 25924, "##hon": 8747, "embroidered": 23590, "socks": 14829, "hawke": 24882, "inputs": 20407, "illustrating": 28252, "kong": 4290, "luckily": 15798, "fiddle": 15888, "pier": 10356, "pottery": 11378, "##gui": 25698, "bautista": 27845, "cheat": 21910, "genus": 3562, "exhibited": 8176, "nest": 9089, "winners": 4791, "down": 2091, "##hid": 27511, "[unused463]": 468, "[unused506]": 511, "awoke": 19179, "colonial": 5336, "koch": 15259, "split": 3975, "cindy": 15837, "kia": 27005, "greet": 17021, "johannes": 12470, "refurbishment": 24478, "##kin": 4939, "##\u1d48": 30034, "##pi": 8197, "95": 5345, "monde": 23117, "oilers": 19778, "##\u208d": 30087, "diaz": 12526, "##kney": 26993, "seymour": 13254, "warmly": 22775, "upstate": 29530, "##zel": 12638, "tremor": 27734, "moniker": 21937, "opinions": 10740, "leg": 4190, "hungarian": 5588, "satellites": 14549, "318": 27003, "frown": 11330, "##\u02b2": 29707, "galley": 27124, "pali": 28619, "[unused855]": 860, "judged": 13224, "conspicuous": 19194, "transcript": 24051, "luc": 12776, "##ser": 8043, "singular": 13048, "progressed": 12506, "aix": 28443, "[unused210]": 215, "geology": 13404, "multimedia": 14959, "proposes": 17146, "employers": 12433, "whispered": 3990, "ambushed": 22168, "invariant": 23915, "resided": 12427, "##hea": 20192, "##\u062e": 29821, "kimberley": 25004, "\u65b0": 1862, "allegations": 9989, "##\u05d9": 29796, "basics": 24078, "courtship": 28592, "##tch": 10649, "rattling": 26347, "[unused401]": 406, "mining": 5471, "pa": 6643, "##rrard": 29599, "312": 21036, "[unused381]": 386, "[unused744]": 749, "penguin": 13987, "tunnels": 10633, "##\u30ed": 30261, "individually": 14258, "etc": 4385, "layout": 9621, "altar": 9216, "pointe": 26119, "##64": 21084, "comment": 7615, "##ouse": 15441, "atlantic": 4448, "recommendation": 12832, "blacks": 10823, "exaggerated": 16903, "dubious": 22917, "##nessy": 25441, "humboldt": 19249, "jimmie": 24671, "magna": 20201, "overwhelmingly": 24783, "erich": 17513, "periods": 6993, "nests": 17415, "fucking": 8239, "[unused753]": 758, "planted": 8461, "dishes": 10447, "resurgence": 26303, "rolling": 5291, "nathaniel": 13961, "sings": 10955, "chandler": 13814, "\u30a4": 1695, "1960s": 4120, "unfortunately": 6854, "platform": 4132, "[unused393]": 398, "##erative": 25284, "##shima": 24772, "darted": 14051, "faded": 8105, "jameson": 22324, "##rk": 8024, "uruguayan": 23464, "reliefs": 27670, "nouvelle": 25207, "bolivian": 26075, "##eke": 23941, "salvador": 10582, "wilmington": 17025, "\u0e25": 1418, "##lit": 15909, "dodged": 28339, "##bs": 5910, "manipulating": 26242, "fences": 21549, "mortgage": 14344, "1670": 26253, "dominican": 10104, "##athan": 29246, "ditch": 14033, "tasmania": 12343, "posterior": 15219, "handgun": 28497, "stalin": 13125, "ira": 11209, "pilot": 4405, "\u30d8": 1721, "##emon": 26941, "##rat": 8609, "1957": 3890, "irritated": 15560, "##flower": 14156, "pour": 10364, "selective": 13228, "uk": 2866, "rigorous": 20001, "mistake": 6707, "##bled": 23242, "farms": 8623, "trouble": 4390, "exercises": 11110, "minogue": 27736, "murray": 6264, "wildcats": 19495, "##agi": 22974, "appendix": 22524, "politician": 3761, "[unused833]": 838, "##cino": 21081, "1741": 25280, "haas": 22996, "horrors": 22812, "##nies": 15580, "ulster": 11059, "nightmares": 15446, "officers": 3738, "visually": 17453, "\u30a7": 1697, "octagonal": 22340, "[unused338]": 343, "1777": 16144, "gift": 5592, "prc": 26141, "##kim": 21138, "baronetcy": 25071, "goethe": 23173, "once": 2320, "goldman": 17765, "camel": 19130, "nicholson": 16955, "\u02d0": 1150, "walk": 3328, "wink": 16837, "forcibly": 20951, "bas": 19021, "southwest": 4943, "storms": 12642, "serve": 3710, "##ave": 10696, "hypothetical": 25613, "vernacular": 18485, "##riding": 21930, "\u00bb": 1090, "coping": 27520, "precisely": 10785, "odor": 19255, "spark": 12125, "embroidery": 29507, "[unused678]": 683, "harmon": 25546, "styled": 13650, "payne": 13470, "undisclosed": 18206, "hosting": 9936, "mu": 14163, "pulpit": 23134, "craters": 27561, "##yas": 16303, "sperm": 18047, "ernest": 8471, "unsuccessful": 7736, "danube": 16212, "1736": 28192, "existing": 4493, "##nstein": 15493, "##eg": 13910, "leading": 2877, "\u4f1a": 1763, "##krishna": 23017, "##combe": 14149, "fighting": 3554, "invisible": 8841, "out": 2041, "slavic": 13838, "stool": 14708, "barbed": 25007, "akron": 22735, "hokkaido": 20826, "securing": 12329, "mata": 22640, "phrase": 7655, "shoved": 7468, "\u11bc": 1489, "ministry": 3757, "[unused187]": 192, "\u057d": 1234, "discontinued": 8944, "unreliable": 23579, "##nche": 26091, "unspecified": 25851, "[unused166]": 171, "protection": 3860, "controls": 7711, "\u2095": 1564, "bitterly": 19248, "greenish": 23753, "blitz": 22312, "criminal": 4735, "navarro": 23524, "practised": 20439, "guidance": 8606, "widened": 8723, "##mir": 14503, "o": 1051, "royalties": 25335, "himself": 2370, "ave": 13642, "partisan": 14254, "##59": 28154, "pleistocene": 25080, "produce": 3965, "proposition": 14848, "producers": 6443, "isa": 18061, "nickel": 15519, "contend": 27481, "democrat": 7672, "happening": 6230, "prediction": 17547, "gram": 13250, "ate": 8823, "##aw": 10376, "expanded": 4423, "\u30df": 1724, "dietary": 23444, "shaman": 23610, "measurements": 11702, "safer": 13726, "329": 29567, "chu": 14684, "cancers": 25409, "poster": 13082, "29th": 16318, "likened": 28834, "leopard": 16240, "harrison": 6676, "[unused600]": 605, "inclusive": 18678, "sudan": 10411, "vinegar": 29387, "rune": 23276, "eastenders": 28936, "monte": 10125, "##br": 19892, "##56": 26976, "archibald": 15917, "type": 2828, "strata": 22913, "##mics": 22924, "sinatra": 19643, "footing": 22849, "killer": 6359, "filming": 7467, "commencing": 25819, "drown": 19549, "##bird": 9001, "concessions": 20638, "##tra": 6494, "cedric": 26170, "fulham": 21703, "nominations": 9930, "nationality": 10662, "[unused298]": 303, "##jee": 16963, "mc": 11338, "doha": 26528, "sportsman": 27168, "thames": 11076, "##yev": 17240, "\u795e": 1925, "gladly": 24986, "simple": 3722, "institutes": 12769, "diet": 8738, "thin": 4857, "patience": 11752, "stein": 14233, "bombay": 11831, "##itt": 12474, "investor": 14316, "##\u03b6": 29724, "acclaim": 10761, "today": 2651, "\u30ca": 1715, "hope": 3246, "##\u308a": 30212, "##ny": 4890, "hui": 17504, "ina": 27118, "shuffle": 23046, "thirteenth": 14725, "##buro": 23670, "newsweek": 26948, "shattering": 21797, "[unused242]": 247, "##$": 29615, "commencement": 20561, "##mill": 19912, "\u2282": 1610, "##ssa": 11488, "marital": 23143, "previous": 3025, "##\u6b4c": 30412, "chef": 10026, "sophia": 9665, "\u30e5": 1729, "conferences": 9281, "\u2193": 1586, "growls": 27825, "adolescent": 20274, "que": 10861, "acidic": 24171, "doris": 15467, "attempt": 3535, "##ola": 6030, "##chison": 27795, "nina": 9401, "torres": 13101, "finish": 3926, "indicates": 7127, "bratislava": 22992, "##written": 15773, "##rating": 15172, "problems": 3471, "##usion": 14499, "cabbage": 28540, "overseas": 6931, "resident": 6319, "sins": 15516, "interventions": 19388, "reckon": 29072, "##\u0438\u044f": 23483, "##\u4f8d": 30291, "robust": 15873, "cooperate": 17654, "scents": 29254, "caldwell": 16589, "roses": 10529, "\u30a8": 1698, "downward": 14047, "castles": 15618, "##nts": 7666, "meeting": 3116, "intersects": 17349, "##hp": 22269, "##bio": 26282, "tame": 24763, "inception": 12149, "alternate": 6585, "consideration": 9584, "pacing": 15732, "146": 16333, "annexed": 13291, "passes": 5235, "warsaw": 8199, "1940": 3878, "pills": 15345, "superb": 21688, "psychiatry": 18420, "drenched": 25265, "lansing": 22304, "herb": 12810, "uci": 14504, "album": 2201, "cottages": 18918, "tyre": 21904, "byzantine": 8734, "positioned": 10959, "php": 25718, "conor": 20545, "knocking": 10591, "madeleine": 19324, "islamabad": 26905, "presence": 3739, "ned": 12311, "##gaard": 18839, "oricon": 22237, "\u00ba": 1089, "##dern": 25888, "mag": 23848, "##as": 3022, "celebrates": 21566, "seller": 14939, "constitutes": 17367, "drinking": 5948, "las": 5869, "276": 25113, "villa": 6992, "fujian": 29551, "]": 1033, "astros": 22058, "iranian": 7726, "##quil": 26147, "consciously": 24447, "broken": 3714, "devi": 14386, "[unused483]": 488, "##\u2212": 22543, "[unused109]": 114, "scroll": 17186, "weep": 27874, "##iu": 17922, "lenny": 19065, "psychology": 6825, "gunther": 19384, "helmet": 10412, "lights": 4597, "##\u2265": 30136, "##tv": 9189, "file": 5371, "throne": 6106, "##achal": 24409, "bubba": 19606, "monitored": 17785, "oscar": 7436, "batteries": 10274, "gregor": 16973, "districts": 4733, "sustained": 8760, "eduard": 20424, "pam": 14089, "jagged": 18187, "sly": 18230, "mammal": 25476, "cornell": 10921, "card": 4003, "midlands": 13256, "birmingham": 6484, "##uba": 19761, "\u0905": 1311, "##vances": 26711, "urge": 9075, "##abe": 16336, "1713": 27016, "omitted": 16647, "##j": 3501, "niagara": 15473, "works": 2573, "foreigners": 15040, "donated": 6955, "foreign": 3097, "1603": 25625, "helix": 25743, "aragon": 16146, "railway": 2737, "miss": 3335, "jonas": 10680, "trains": 4499, "cantonese": 22241, "surveyed": 12876, "benny": 11945, "settling": 9853, "##wana": 21761, "anchor": 8133, "fighters": 7299, "glorious": 14013, "press": 2811, "jai": 17410, "vows": 16495, "8": 1022, "seventy": 10920, "anticipated": 11436, "##utter": 26878, "proprietary": 16350, "markets": 6089, "fifth": 3587, "##aq": 20784, "obstacles": 15314, "##pling": 14353, "dialogue": 7982, "numbering": 15200, "ioc": 25941, "1718": 26995, "congenital": 27480, "principally": 16552, "##say": 24322, "passed": 2979, "wii": 16568, "inspector": 7742, "\u539f": 1787, "austin": 5899, "league": 2223, "rochdale": 26109, "wheeled": 17320, "styles": 6782, "tuition": 15413, "##\u05e6": 29809, "newly": 4397, "winged": 14462, "1810": 11786, "fear": 3571, "attractions": 13051, "domino": 23968, "kn": 14161, "jar": 15723, "##itarian": 25691, "330": 14210, "[unused252]": 257, "tsar": 17608, "\u043f": 1194, "[unused372]": 377, "pup": 26781, "trailed": 11145, "programmed": 16984, "\u82f1": 1941, "adventures": 7357, "##otti": 21325, "leases": 29597, "attractive": 8702, "stack": 9991, "narrower": 22546, "sustaining": 22663, "slalom": 19617, "affiliation": 12912, "##icio": 27113, "characteristic": 8281, "##arding": 29154, "legal": 3423, "wars": 5233, "psalms": 26130, "##ally": 3973, "torre": 22047, "760": 24643, "##qui": 15549, "##\u0582": 29785, "hendricks": 28895, "lesser": 8276, "composite": 12490, "reissued": 14805, "##bine": 16765, "dump": 15653, "cinnamon": 21229, "variability": 28436, "grinding": 16153, "publicity": 11845, "veins": 9607, "power": 2373, "##cp": 21906, "\u2019": 1521, "story": 2466, "membership": 5779, "pass": 3413, "##leader": 19000, "circumstances": 6214, "\u0e21": 1415, "##vah": 21927, "sad": 6517, "1880": 6756, "subspecies": 11056, "recall": 9131, "scrutiny": 17423, "frank": 3581, "hawthorne": 23440, "silesia": 21872, "##omy": 16940, "##bl": 16558, "ranch": 8086, "[unused169]": 174, "torpedoes": 18544, "##kovic": 14733, "##mania": 27010, "aqueduct": 24016, "cia": 9915, "##thorpe": 22398, "policeman": 14460, "\u09bf": 1379, "jumping": 8660, "pigs": 14695, "substitution": 20885, "entered": 3133, "memorabilia": 28663, "validity": 16406, "56": 5179, "cardiff": 10149, "1645": 26081, "abused": 16999, "casper": 24602, "decorated": 7429, "bae": 25818, "flush": 13862, "focusing": 7995, "delegate": 11849, "argue": 7475, "disabilities": 13597, "disastrous": 16775, "ah": 6289, "rallies": 22867, "was": 2001, "chances": 9592, "[unused694]": 699, "dylan": 7758, "90": 3938, "brain": 4167, "craftsman": 26286, "quickly": 2855, "##gree": 28637, "##58": 27814, "android": 11924, "overshadowed": 28604, "\u02e1": 1151, "liu": 8607, "\u03c7": 1177, "weakness": 11251, "basis": 3978, "scrub": 18157, "gearbox": 22227, "sneak": 13583, "ponder": 29211, "basketball": 3455, "[unused27]": 28, "seeker": 29444, "serious": 3809, "acceptable": 11701, "310": 17196, "tinged": 22683, "##ym": 24335, "##may": 27871, "drain": 12475, "technologies": 6786, "palm": 5340, "##wen": 12449, "altered": 8776, "clusters": 12906, "medicine": 4200, "humans": 4286, "##rini": 22612, "##arina": 27943, "marines": 9622, "##ain": 8113, "fund": 4636, "flourishing": 29571, "depiction": 15921, "highland": 10983, "vidal": 29259, "##bane": 27543, "##dation": 20207, "beverages": 21705, "swing": 7370, "##dberg": 25190, "berger": 16758, "legions": 23269, "sean": 5977, "undergoing": 14996, "orthodox": 6244, "##ressed": 16119, "base": 2918, "arnold": 7779, "extract": 14817, "narrowing": 21978, "780": 28601, "scarlet": 11862, "vest": 17447, "##tral": 21493, "classrooms": 12463, "darius": 14861, "##uated": 16453, "delicious": 12090, "coaster": 16817, "soloist": 16504, "251": 22582, "dew": 24903, "##\u2075": 30074, "fortunes": 18023, "forget": 5293, "penned": 17430, "somewhere": 4873, "propped": 16863, "treacherous": 26648, "##ience": 13684, "\uff0d": 1990, "##ae": 6679, "sergey": 22703, "crawling": 15927, "canterbury": 9976, "antonia": 24272, "millimetres": 13388, "polgara": 27041, "[unused10]": 11, "ripping": 17039, "##page": 13704, "##utation": 26117, "explosive": 11355, "##agne": 25440, "madras": 12993, "assignments": 14799, "##oa": 10441, "[unused963]": 968, "##nse": 12325, "myths": 17218, "\u30c3": 1711, "##efe": 27235, "##ds": 5104, "additive": 29167, "borders": 6645, "paintings": 5265, "nobel": 10501, "sexy": 7916, "rather": 2738, "served": 2366, "compelled": 15055, "recalls": 17722, "commandos": 25144, "persuade": 13984, "##outh": 17167, "marriages": 12743, "legacy": 8027, "dissertation": 14481, "ow": 27593, "##yana": 16811, "phil": 6316, "object": 4874, "objectives": 11100, "##ttal": 28200, "[unused229]": 234, "banks": 5085, "rhythm": 6348, "titanic": 20753, "##esian": 25253, "521": 26963, "enjoy": 5959, "hunted": 14682, "charts": 6093, "salazar": 25315, "come": 2272, "liechtenstein": 26500, "##\u0937": 29873, "insects": 9728, "conversion": 7584, "ia": 24264, "[unused66]": 67, "crises": 25332, "bragg": 23678, "[unused20]": 21, "twin": 5519, "eccentric": 18080, "wigan": 15598, "[unused26]": 27, "forbade": 27315, "##\u09a6": 29900, "##\u0562": 29767, "rt": 19387, "surfaces": 9972, "1665": 27676, "comprehensive": 7721, "disgusted": 17733, "namesake": 17283, "\u306d": 1670, "wavelength": 19934, "180": 8380, "consultation": 16053, "muster": 20327, "##\u02e1": 29716, "friction": 15012, "##\u5e74": 30366, "##block": 23467, "sulfur": 17864, "preparation": 7547, "impressed": 7622, "reprint": 25364, "\u91ce": 1963, "\u00a7": 1073, "widow": 7794, "doctors": 7435, "parasitic": 26045, "phases": 12335, "repertoire": 13646, "nemesis": 21363, "academic": 3834, "options": 7047, "##raphic": 20721, "401": 22649, "##mined": 25089, "##tan": 5794, "courts": 5434, "yeah": 3398, "prevalence": 20272, "##ylus": 18871, "106": 10114, "emir": 23434, "##sham": 21010, "##adan": 26335, "wrestled": 20615, "collapse": 7859, "##rera": 24068, "navy": 3212, "##\u211d": 30107, "fated": 27442, "compares": 22963, "overboard": 27089, "peat": 23366, "registrar": 24580, "##vir": 21663, "linked": 5799, "invaded": 10836, "seeming": 16064, "masjid": 27779, "sampled": 18925, "##ias": 7951, "\u30db": 1722, "stockport": 26284, "##yck": 28377, "heath": 9895, "graph": 10629, "##chemical": 15869, "panchayat": 20079, "##anian": 26032, "##\u6c37": 30421, "\u025b": 1115, "hardly": 6684, "##\u694a": 30409, "approach": 3921, "##ulia": 20922, "havilland": 23994, "brent": 12895, "finer": 26954, "[unused387]": 392, "chose": 4900, "365": 19342, "##\u2082": 8229, "frederick": 5406, "mathias": 20494, "##rah": 10404, "racers": 25791, "##head": 4974, "to": 2000, "stereotypes": 22807, "aka": 9875, "deposits": 10042, "##ope": 17635, "murders": 9916, "keller": 16155, "narrative": 7984, "##\u02c8": 29715, "moan": 13673, "##80": 17914, "##cera": 19357, "rookie": 8305, "iihf": 26904, "##ken": 7520, "bulging": 27569, "digitally": 18397, "proficiency": 26293, "thesis": 9459, "allied": 6035, "observer": 9718, "[unused190]": 195, "theologians": 29013, "lisa": 7059, "amendment": 7450, "archipelago": 13888, "##cho": 9905, "ramps": 24943, "warden": 13745, "\u30fc": 1739, "stung": 19280, "##\u0bc7": 29934, "bonnie": 12220, "operas": 14281, "behaviors": 15592, "##gu": 12193, "momma": 23603, "rhythmic": 14797, "##rade": 13662, "inferno": 21848, "daniels": 13196, "[unused974]": 979, "##plicity": 27293, "executed": 6472, "venue": 6891, "trash": 11669, "##mina": 22311, "rendered": 10155, "competitions": 6479, "republic": 3072, "kunst": 28145, "##eil": 24359, "reproductive": 15124, "renovations": 15576, "##matic": 12644, "##\u305f": 30187, "217": 20335, "appropriated": 29223, "##igraphy": 23132, "bother": 8572, "isolation": 12477, "##kovich": 28195, "##pping": 14853, "comets": 27138, "bryan": 8527, "pensacola": 26073, "331": 27533, "\u6211": 1855, "stryker": 25429, "inhuman": 29582, "schuster": 24253, "wheeler": 12819, "shriek": 24795, "courtesy": 14571, "dispose": 27764, "kyoto": 15008, "swim": 9880, "\u5c71": 1831, "namely": 8419, "##lho": 28061, "raiding": 23530, "comics": 5888, "##rissa": 26571, "preparing": 8225, "lds": 17627, "[unused72]": 73, "proposals": 10340, "visit": 3942, "spun": 7455, "##lou": 23743, "swap": 19948, "\u56fd": 1799, "##sz": 17112, "##tyle": 27983, "[unused279]": 284, "extant": 12905, "operator": 6872, "tainted": 26392, "telescope": 12772, "angular": 16108, "interrogation": 16871, "bolivar": 22118, "diablo": 28841, "present": 2556, "1625": 26263, "jacqueline": 17551, "nutrition": 14266, "thom": 19438, "traditions": 7443, "carmen": 11425, "owing": 11427, "knuckles": 13513, "overlook": 27590, "migrated": 13447, "stakeholders": 22859, "##tors": 6591, "##\u1173": 30017, "booming": 24716, "daughters": 5727, "holiday": 6209, "[unused443]": 448, "##tology": 23479, "fender": 19028, "ke": 17710, "loyalist": 23414, "behaved": 26979, "achieving": 10910, "gun": 3282, "wolfe": 14212, "bungalow": 27563, "expose": 14451, "agitated": 21568, "[unused714]": 719, "reviews": 4391, "##felt": 26675, "[unused972]": 977, "straightened": 11168, "calm": 5475, "visited": 4716, "37th": 23027, "eighty": 12021, "warships": 15964, "g": 1043, "grave": 6542, "oxford": 4345, "cocktail": 18901, "meant": 3214, "superstructure": 28391, "ronan": 18633, "##alis": 13911, "archdeacon": 21742, "##\u0964": 29880, "airmen": 29437, "item": 8875, "##ided": 14097, "##unda": 18426, "creation": 4325, "1672": 27253, "[unused940]": 945, "baldwin": 10970, "erica": 19295, "##ears": 26492, "leger": 26523, "restrict": 21573, "rocco": 28167, "character": 2839, "somebody": 8307, "remainder": 6893, "research": 2470, "dani": 19522, "mor": 22822, "obituary": 20815, "opt": 23569, "singled": 25369, "appropriate": 6413, "ignorant": 21591, "showered": 23973, "hz": 22100, "committing": 16873, "##ving": 6455, "cyrus": 16123, "249": 23628, "undertaker": 27568, "##eaux": 25639, "##storm": 19718, "pie": 11345, "elements": 3787, "glowed": 16497, "mortals": 23844, "relate": 14396, "understood": 5319, "madden": 24890, "[unused215]": 220, "1737": 26738, "archduke": 27463, "ii": 2462, "##\u09a1": 29896, "jewels": 15565, "##hta": 22893, "parody": 12354, "measured": 7594, "1611": 28769, "infrastructure": 6502, "williams": 3766, "hating": 22650, "168": 16923, "dawned": 27702, "+": 1009, "slippery": 22274, "gaul": 26522, "[unused612]": 617, "righteous": 19556, "periodical": 21802, "glaring": 16124, "aesthetic": 12465, "304": 23859, "fungal": 28079, "descent": 6934, "narration": 21283, "##herton": 27949, "rn": 29300, "##lves": 20899, "apprehension": 25809, "##\u057e": 29782, "##liness": 20942, "joked": 19700, "mae": 11530, "wheat": 10500, "build": 3857, "paralyzed": 22348, "floating": 8274, "\uff1f": 1994, "mergers": 28585, "harmonica": 16527, "walsh": 11019, "park": 2380, "##grave": 12830, "helene": 20149, "##\u5f73": 30371, "##ibly": 17296, "photographer": 8088, "trades": 14279, "[unused53]": 54, "hats": 16717, "industry": 3068, "fitch": 26062, "nude": 15287, "insufficient": 13990, "\u02bf": 1148, "sided": 11536, "##\u092a": 29864, "diplomat": 11125, "##ific": 18513, "miami": 5631, "remember": 3342, "airport": 3199, "graf": 22160, "thence": 23166, "philippine": 7802, "collaborated": 8678, "phyllis": 20328, "premature": 21371, "learning": 4083, "walked": 2939, "westchester": 25489, "##ap": 9331, "\u2190": 1583, "deportivo": 23696, "\u6a4b": 1885, "mischievous": 25723, "\u653f": 1860, "sessions": 6521, "scanning": 13722, "disputes": 11936, "treason": 14712, "connectivity": 20831, "[unused892]": 897, "chrome": 18546, "shareholder": 18668, "marches": 20691, "phillip": 10852, "\u5ba3": 1823, "surpassing": 27097, "oriented": 8048, "curator": 13023, "generator": 13103, "evan": 9340, "##mer": 5017, "vanish": 25887, "declined": 6430, "none": 3904, "1910s": 28088, "generated": 7013, "nikki": 14470, "comparison": 7831, "tex": 16060, "##aina": 27971, "guadalupe": 23529, "esteem": 19593, "fallon": 16443, "shouts": 15701, "constituencies": 13315, "decisions": 6567, "\u53f2": 1790, "232": 20666, "##age": 4270, "001": 25604, "booth": 9065, "batting": 9640, "adjustment": 19037, "##sio": 20763, "referees": 25118, "accounting": 9529, "few": 2261, "copy": 6100, "[unused49]": 50, "cereal": 20943, "##\u0630": 29822, "nostalgia": 26968, "ut": 21183, "verb": 12034, "compatibility": 21778, "alfred": 6152, "dalai": 28511, "##\u5c1a": 30356, "neatly": 15981, "nerve": 9113, "scotland": 3885, "evie": 26400, "##nic": 8713, "mothers": 10756, "brisk": 28022, "hey": 4931, "cream": 6949, "governance": 10615, "##pants": 27578, "##set": 13462, "calming": 23674, "detector": 19034, "activation": 13791, "featuring": 3794, "immensely": 24256, "manila": 9011, "study": 2817, "fined": 16981, "##ographer": 26145, "1892": 6527, "##\u2044\u2084": 27392, "insists": 16818, "\u76f8": 1919, "288": 24841, "##chal": 18598, "regulars": 24945, "154": 16666, "402": 28048, "palestine": 8976, "##mpt": 27718, "cryptic": 26483, "rounds": 6241, "centuries": 4693, "obtaining": 11381, "##lastic": 28723, "##wee": 28394, "##cade": 21869, "[unused635]": 640, "\u09c0": 1380, "03": 6021, "conceded": 15848, "resolution": 5813, "villains": 16219, "twenty": 3174, "fees": 9883, "##32": 16703, "##bold": 27495, "##ri": 3089, "remixes": 15193, "hudson": 6842, "bunker": 15742, "mountainous": 14897, "ucla": 12389, "##quist": 18331, "##fi": 8873, "originated": 7940, "reaction": 4668, "##hae": 25293, "##hak": 20459, "culminated": 16943, "##nagar": 14346, "ratio": 6463, "unnatural": 21242, "proponent": 22488, "[unused260]": 265, "mongol": 17450, "gilles": 21717, "puebla": 27452, "versa": 18601, "rallied": 24356, "loops": 15932, "eyebrows": 8407, "\u092d": 1330, "\u045b": 1217, "\u2663": 1624, "##iom": 18994, "question": 3160, "dinamo": 22306, "olds": 19457, "observe": 11949, "quarries": 27069, "sept": 17419, "disciple": 17849, "##\u6cb3": 30425, "agricultural": 4910, "clearer": 24509, "licking": 17033, "242": 22431, "##wi": 9148, "##ssel": 21218, "inwardly": 28710, "phantom": 11588, "sobbed": 25960, "hints": 20385, "johor": 25268, "kicking": 10209, "inviting": 15085, "developing": 4975, "blackburn": 13934, "referendum": 9782, "##nco": 15305, "carpets": 27997, "2017": 2418, "sketch": 11080, "spectral": 17435, "knee": 6181, "##\u0932": 29870, "realism": 15650, "thorough": 16030, "ek": 23969, "intra": 26721, "mercenary": 22146, "lacy": 19959, "implementations": 24977, "mariana": 22097, "90s": 17233, "cutter": 16343, "##ula": 7068, "skills": 4813, "##mpton": 26793, "##try": 11129, "\u0baa": 1388, "demi": 27668, "epic": 8680, "characters": 3494, "marne": 25823, "citation": 11091, "naive": 15743, "piano": 3682, "##res": 6072, "diamond": 6323, "##\u0565": 29770, "farmer": 7500, "bulgarian": 7643, "\u2609": 1622, "popular": 2759, "##\u03c9": 29739, "tumors": 21434, "[unused347]": 352, "craftsmen": 25736, "jessie": 10934, "bullshit": 14636, "##gation": 12540, "##asco": 28187, "200": 3263, "##deh": 25383, "demons": 7942, "hooded": 21592, "exeter": 12869, "influx": 18050, "oblivion": 24034, "winger": 16072, "retaliation": 18695, "junior": 3502, "mariners": 18049, "$": 1002, "##cl": 20464, "##\u09ad": 29905, "elaborate": 9603, "##tted": 16190, "families": 2945, "\u3072": 1673, "weekdays": 19759, "detainees": 26485, "##gnon": 26977, "launching": 12106, "croats": 26222, "maxim": 20446, "migrating": 28636, "skip": 13558, "genera": 11416, "cyclone": 11609, "##sson": 7092, "tumbling": 21552, "splits": 19584, "greeting": 14806, "quiz": 19461, "checked": 7039, "attention": 3086, "##kulam": 28871, "refit": 27070, "##fell": 23510, "viola": 10482, "mal": 15451, "##ives": 24653, "\u09b2": 1373, "enactment": 26465, "##\u00f8": 16415, "shove": 14738, "\u2500": 1615, "bobbie": 27731, "hemisphere": 14130, "test": 3231, "[unused86]": 87, "indiana": 5242, "sk": 15315, "##mi": 4328, "mob": 11240, "overhaul": 18181, "reuters": 26665, "roaming": 24430, "cookie": 17387, "expanse": 22944, "ensure": 5676, "met": 2777, "##nut": 24072, "\u56db": 1798, "##\u10d2": 29976, "inhaled": 15938, "wal": 24547, "ox": 23060, "##rner": 18703, "stored": 8250, "##llas": 25816, "unicode": 27260, "pont": 21179, "stabilize": 27790, "lund": 21860, "admiral": 5902, "##mut": 28120, "##\u09b9": 29913, "erwin": 22209, "pilots": 8221, "myanmar": 12620, "##\u0dcf": 29944, "nara": 27544, "##yon": 14001, "##\u8eca": 30480, "intimidated": 28028, "paz": 18183, "\u3009": 1638, "computer": 3274, "##quisite": 24871, "\u771f": 1921, "sectional": 27197, "chocolate": 7967, "mcpherson": 24332, "##opers": 27342, "rooted": 15685, "[unused587]": 592, "##ater": 24932, "[unused757]": 762, "tingling": 23690, "cake": 9850, "mounting": 15986, "cdp": 8561, "aidan": 12643, "19th": 3708, "prep": 17463, "tables": 7251, "anya": 21728, "fishing": 5645, "##amine": 19915, "baroque": 10456, "interrupted": 7153, "enter": 4607, "duval": 23929, "richardson": 9482, "##cie": 23402, "extensions": 14305, "ins": 16021, "theatrical": 8900, "archdiocese": 12658, "dagger": 10794, "emily": 6253, "eyelashes": 25150, "##\u1d30": 30028, "interrupting": 22602, "bandit": 25334, "[unused925]": 930, "closer": 3553, "regency": 15647, "\u0989": 1350, "2019": 10476, "mildred": 25452, "activities": 3450, "landon": 20642, "produces": 7137, "horses": 5194, "##art": 8445, "aux": 19554, "does": 2515, "aquatic": 13582, "range": 2846, "[unused562]": 567, "##sa": 3736, "barre": 23189, "specify": 20648, "##abi": 28518, "soul": 3969, "valued": 11126, "##rf": 12881, "##wa": 4213, ")": 1007, "##wich": 12414, "reilly": 13875, "##esh": 9953, "batch": 14108, "clerks": 26706, "##enna": 24397, "commemorative": 17524, "revered": 23886, "tal": 21368, "acclaimed": 10251, "[unused420]": 425, "dante": 9649, "ruling": 6996, "recommend": 16755, "session": 5219, "tug": 12888, "\u301c": 1645, "inevitable": 13418, "surrounds": 20626, "overwhelmed": 13394, "##ms": 5244, "secured": 7119, "deteriorated": 20111, "woodrow": 23954, "\u2660": 1623, "aspects": 5919, "fictional": 7214, "\u116a": 1476, "runway": 9271, "samantha": 11415, "approximation": 20167, "##\u8fb6": 30482, "##ret": 13465, "dolphin": 17801, "church": 2277, "basement": 8102, "\u0924": 1323, "##sant": 22341, "##\u771f": 30447, "##ined": 21280, "locking": 14889, "##shi": 6182, "1960": 3624, "academics": 15032, "ciudad": 20759, "healed": 15027, "variables": 10857, "##analysis": 25902, "##ub": 12083, "pattern": 5418, "##\u6709": 30399, "treat": 7438, "auf": 21200, "intensely": 20531, "frogs": 17582, "pendulum": 28300, "wardrobe": 17828, "##anor": 27869, "cs": 20116, "forensic": 15359, "learnt": 20215, "neither": 4445, "pseudonym": 13881, "spanish": 3009, "enveloped": 25407, "##que": 4226, "oct": 13323, "remarkably": 17431, "[unused943]": 948, "\u03b5": 1159, "saying": 3038, "coach": 2873, "##ingly": 15787, "iata": 9833, "suns": 19352, "##tidae": 21861, "executives": 12706, "##\u00bb": 29663, "prefer": 9544, "shipbuilding": 16802, "residency": 14079, "\u014b": 1106, "seventies": 26232, "\u0575": 1230, "rbis": 23583, "election": 2602, "dial": 13764, "##hony": 27629, "crimes": 6997, "##cards": 17965, "[unused227]": 232, "longitudinal": 20134, "[unused339]": 344, "[unused858]": 863, "loire": 20399, "##ral": 7941, "edinburgh": 5928, "\u2295": 1612, "\u4e5f": 1750, "organist": 16397, "##oting": 20656, "ahead": 3805, "abruptly": 9225, "auditions": 21732, "terrestrial": 12350, "##stead": 25647, "##ening": 7406, "##bbon": 27684, "bengals": 23227, "later": 2101, "na": 6583, "bluegrass": 21286, "panther": 15133, "yards": 4210, "atomic": 9593, "bra": 11655, "##\u30df": 30250, "storytelling": 20957, "##gy": 6292, "##rting": 24097, "##ison": 10929, "grazed": 26627, "matilda": 17981, "alexa": 24969, "##iz": 10993, "contaminated": 19450, "hygiene": 19548, "mere": 8210, "appear": 3711, "##ssed": 29417, "highs": 26836, "##fies": 14213, "callum": 15229, "gundam": 26152, "mla": 18619, "palace": 4186, "harm": 7386, "memoir": 12558, "590": 25186, "barrister": 19805, "she": 2016, "transform": 10938, "must": 2442, "eaten": 8828, "windsor": 10064, "organism": 15923, "subcontinent": 26125, "[unused505]": 510, "threads": 16457, "petroleum": 11540, "nowadays": 13367, "compound": 7328, "ma": 5003, "abandonment": 22290, "fingertips": 12206, "remotely": 19512, "##nikov": 22576, "##ord": 8551, "edit": 10086, "from": 2013, "fronted": 23291, "reigning": 16323, "admitted": 4914, "stopped": 3030, "edmonton": 10522, "leapt": 13920, "[unused57]": 58, "frail": 25737, "moderate": 8777, "##ghi": 28891, "25th": 10965, "papa": 13008, "surrounding": 4193, "\u0935": 1335, "##iate": 13143, "annette": 22521, "or": 2030, "##zza": 20715, "favorites": 20672, "tap": 11112, "##\u4eac": 30281, "hobby": 17792, "wrongly": 29116, "portage": 25140, "ancestors": 10748, "include": 2421, "lowest": 7290, "##tility": 18724, "##mbo": 13344, "european": 2647, "aspirations": 22877, "ax": 22260, "stresses": 23253, "dean": 4670, "los": 3050, "clears": 28837, "confront": 14323, "\u0cbe": 1402, "traces": 10279, "##ft": 6199, "asking": 4851, "housemates": 28152, "tens": 15295, "disappointing": 15640, "floor": 2723, "##\u03c7": 29737, "absurd": 18691, "defaulted": 17265, "dobson": 27679, "promising": 10015, "sheep": 8351, "amassed": 22151, "\u093f": 1341, "neon": 16231, "manning": 11956, "cubs": 12469, "indigo": 22472, "relational": 28771, "thessaloniki": 23162, "\u09be": 1378, "splitting": 14541, "instinct": 12753, "speeches": 13867, "implies": 12748, "bill": 3021, "reefs": 21484, "donald": 6221, "soil": 5800, "ago": 3283, "##rent": 22787, "telecommunications": 12108, "remix": 6136, "189": 20500, "initiation": 17890, "textures": 29343, "[unused132]": 137, "spicy": 25482, "judging": 13325, "pole": 6536, "princess": 4615, "##rou": 22494, "##gi": 5856, "flex": 23951, "wore": 5078, "adulthood": 20480, "[unused821]": 826, "colorado": 5169, "ruby": 10090, "regional": 3164, "sabrina": 21876, "schumacher": 22253, "##mas": 9335, "composition": 5512, "hurled": 24025, "\u590f": 1808, "cleaning": 9344, "withdraw": 10632, "derivation": 29280, "brick": 5318, "##onus": 24891, "handel": 21465, "[unused696]": 701, "aquatics": 26649, "##ome": 8462, "objective": 7863, "deadline": 15117, "championships": 3219, "[unused452]": 457, "dirty": 6530, "plead": 25803, "unsuitable": 25622, "elegance": 27745, "360": 9475, "##founded": 21001, "forums": 21415, "philosophical": 9569, "legitimacy": 22568, "pretoria": 25366, "##tech": 15007, "##500": 29345, "##aria": 10980, "mcc": 23680, "then": 2059, "sexuality": 13798, "gust": 26903, "##28": 22407, "##ita": 6590, "generals": 11593, "homo": 24004, "thrilled": 16082, "threaten": 15686, "annually": 6604, "methane": 24481, "philadelphia": 4407, "alabama": 6041, "##cano": 23803, "forrest": 16319, "chases": 29515, "kei": 26679, "padded": 20633, "kerry": 11260, "muscular": 13472, "columnist": 13317, "flowing": 8577, "miller": 4679, "##\u0e07": 29946, "##\u221e": 30128, "\u028a": 1132, "##hip": 5605, "##ment": 3672, "##ably": 8231, "bids": 20723, "mons": 29408, "overrun": 24672, "velocity": 10146, "unspoken": 25982, "\u9f8d": 1982, "##cus": 7874, "triple": 6420, "battlefield": 11686, "1980": 3150, "\u0985": 1347, "markus": 23030, "network": 2897, "151": 16528, "##ivated": 21967, "\u00b0f": 8157, "1773": 19916, "##drick": 24092, "##nator": 27413, "\u045a": 1216, "1847": 9176, "jones": 3557, "vp": 21210, "ported": 27650, "coughing": 21454, "cautiously": 15151, "abortion": 11324, "constituted": 11846, "populous": 20151, "trafficking": 11626, "pamphlet": 19899, "247": 23380, "interruption": 24191, "turtle": 13170, "applicants": 17362, "nasty": 11808, "##\u2ebc": 30159, "[unused619]": 624, "raceway": 23018, "henson": 27227, "##gai": 23805, "dire": 18704, "forcefully": 23097, "lend": 18496, "proudly": 18067, "shower": 6457, "teamed": 12597, "youth": 3360, "##dating": 16616, "committed": 5462, "counties": 5721, "turnover": 20991, "sin": 8254, "denis": 11064, "##ow": 5004, "pupil": 11136, "[unused484]": 489, "subsidy": 28768, "##avs": 29553, "##\u00aa": 29653, "yearly": 12142, "printers": 23557, "pulling": 4815, "haji": 28174, "complex": 3375, "\u72ac": 1908, "outlaw": 19104, "overwhelming": 10827, "##rst": 12096, "grand": 2882, "##rval": 26585, "civilians": 9272, "allows": 4473, "kylie": 9008, "privately": 9139, "dissipated": 22572, "##mins": 21266, "distinctly": 19517, "reasonable": 9608, "smirk": 15081, "dorothy": 9984, "tv": 2694, "giggle": 17565, "processes": 6194, "weights": 15871, "##num": 19172, "[unused122]": 127, "\u1106": 1459, "complaining": 17949, "sheen": 20682, "[unused891]": 896, "haydn": 25595, "childless": 26983, "anthropologist": 21571, "guantanamo": 23094, "fisherman": 19949, "canary": 17154, "quartet": 8530, "pollen": 22482, "keyboardist": 20173, "domestically": 27143, "##ct": 6593, "cleared": 5985, "chesapeake": 20867, "islands": 3470, "kemp": 20441, "defense": 3639, "lectures": 8921, "mecklenburg": 22007, "##ii": 6137, "reflections": 16055, "bio": 16012, "empowerment": 23011, "thus": 2947, "ufo": 24321, "\u9053": 1957, "##cave": 27454, "super": 3565, "pleasing": 24820, "soto": 22768, "receptions": 16466, "mexican": 4916, "husky": 18758, "eds": 11985, "knowledge": 3716, "penal": 18476, "##\u2070": 30071, "secondly": 16378, "[unused978]": 983, "however": 2174, "##|": 29641, "selena": 19166, "subdivided": 15369, "flows": 6223, "ordering": 13063, "share": 3745, "##rka": 22379, "directors": 5501, "booking": 21725, "hunched": 20498, "mirror": 5259, "frontal": 19124, "excellence": 8012, "genoa": 15771, "devotees": 22707, "darkened": 13755, "melee": 27868, "reflected": 7686, "roof": 4412, "socialism": 14649, "mills": 6341, "tossed": 7463, "##lis": 6856, "##\u201a": 30057, "sliced": 15920, "huey": 29503, "earn": 7796, "##cturing": 19159, "drifted": 10070, "michel": 8709, "deal": 3066, "timor": 19746, "og": 13958, "occasion": 6686, "apt": 26794, "\u7f8e": 1935, "ea": 19413, "tape": 6823, "graduate": 4619, "punched": 11696, "scotia": 9676, "coasts": 20266, "excellent": 6581, "mild": 10256, "##ony": 16585, "spans": 14798, "futuristic": 28971, "dell": 12418, "mist": 11094, "rejoined": 14311, "wary": 15705, "empress": 10248, "fungus": 16622, "pursuing": 11828, "echoed": 10187, "doorway": 7086, "unacceptable": 21873, "legislators": 22680, "filmmakers": 16587, "##mps": 25370, "\u062c": 1275, "halo": 17201, "##hope": 26441, "alternatives": 15955, "##ond": 15422, "inadvertently": 21089, "##ses": 8583, "##selle": 19358, "nationalism": 14594, "dakota": 7734, "whilst": 5819, "vocational": 13099, "##iva": 11444, "person": 2711, "fine": 2986, "godfrey": 18238, "\u529b": 1778, "cassie": 8869, "\u963f": 1971, "unaware": 11499, "groundwater": 22761, "midfield": 23071, "chimney": 17321, "portrays": 17509, "00": 4002, "##type": 13874, "translating": 22969, "madam": 21658, "##borg": 11755, "explode": 15044, "[unused368]": 373, "respected": 9768, "##lved": 26832, "[unused572]": 577, "[unused843]": 848, "distinction": 7835, "westward": 15165, "##sley": 8002, "environmental": 4483, "##\u2191": 30112, "rearview": 28726, "regatta": 26848, "spent": 2985, "statesman": 17689, "altering": 22552, "cyclists": 21912, "enforce": 16306, "\u2071": 1537, "newscast": 20306, "amulet": 25087, "##more": 5974, "[unused628]": 633, "propagation": 20594, "pray": 11839, "##\u028b": 29699, "conserve": 27749, "##rnier": 28484, "cues": 23391, "\u0ca8": 1400, "graz": 26918, "kiel": 20963, "encourage": 8627, "ipa": 24531, "stress": 6911, "##\u2032": 30066, "designs": 5617, "[unused915]": 920, "bug": 11829, "##rata": 14660, "##ru": 6820, "##eased": 25063, "bliss": 13670, "fork": 9292, "1714": 25241, "[unused697]": 702, "outlet": 13307, "plasma": 12123, "jumps": 14523, "sold": 2853, "[unused450]": 455, "##rb": 15185, "recordings": 5633, "##rc": 11890, "lieu": 22470, "##uan": 13860, "##tting": 13027, "[unused455]": 460, "matches": 3503, "goal": 3125, "##max": 17848, "winkler": 20472, "##pins": 27915, "##cek": 25368, "deficiency": 18888, "regina": 12512, "bent": 6260, "fins": 18564, "associated": 3378, "edgar": 9586, "shorter": 7820, "bromwich": 27888, "bulldogs": 15120, "shannon": 10881, "##\u30fc": 30265, "kinetic": 20504, "##tton": 15474, "##dden": 17101, "monty": 18446, "chieftain": 26625, "becca": 22140, "ji": 10147, "leung": 26037, "##zes": 11254, "cared": 8725, "maldives": 25059, "##oric": 29180, "newcomers": 24159, "shall": 4618, "disregard": 27770, "tarzan": 24566, "covert": 19813, "mentally": 10597, "coefficient": 19064, "##ivism": 22486, "viral": 13434, "##ale": 9453, "obliged": 14723, "arabian": 13771, "##isman": 20257, "barley": 21569, "congressional": 7740, "eighteenth": 12965, "fortress": 7841, "hugs": 24459, "role": 2535, "carr": 12385, "attained": 12754, "##eber": 22669, "186": 19609, "bold": 7782, "tequila": 26791, "paige": 17031, "blessings": 24618, "michele": 15954, "1988": 2997, "nw": 22064, "pushes": 13956, "fission": 27521, "saddam": 24111, "##vie": 13469, "##tructing": 26310, "##udy": 20217, "burgess": 17754, "hitchcock": 19625, "alexandra": 10481, "vancouver": 6930, "##nis": 8977, "##amps": 25167, "##ggs": 21314, "##neas": 26737, "bind": 14187, "##bright": 26614, "comprises": 8681, "celebrating": 12964, "newton": 8446, "consuming": 15077, "foremost": 16097, "cow": 11190, "teacher": 3836, "##\u00a1": 29644, "gong": 17242, "##lto": 23223, "##hesis": 24124, "dario": 26800, "loosened": 22456, "notions": 21951, "essen": 29032, "chartered": 12443, "mao": 15158, "clinic": 9349, "saetan": 23515, "daphne": 16847, "sakura": 23066, "##\u6cd5": 30427, "262": 21950, "tara": 10225, "\u05dc": 1253, "puddle": 25081, "image": 3746, "steering": 9602, "bruno": 10391, "qaeda": 18659, "\u5409": 1793, "inspected": 20456, "spectra": 29237, "yves": 19687, "stabbed": 13263, "fried": 13017, "presenters": 25588, "\u2030": 1530, "troubled": 11587, "instruments": 5693, "kang": 16073, "vanished": 9955, "aground": 29406, "bribes": 29117, "compiled": 9227, "##ucci": 16835, "announced": 2623, "kaufman": 23699, "3d": 7605, "##iba": 18410, "psyche": 25774, "woven": 17374, "##\u653f": 30386, "##take": 15166, "minneapolis": 11334, "##gly": 25643, "detachment": 11009, "\u307b": 1676, "nowhere": 7880, "\u5c07": 1828, "hodges": 19772, "pile": 8632, "front": 2392, "communication": 4807, "##uising": 28580, "soc": 27084, "confused": 5457, "antique": 14361, "##tson": 25656, "skye": 16590, "mole": 16709, "bipolar": 29398, "vogue": 17734, "arc": 8115, "dynasties": 23014, "fielded": 20988, "news": 2739, "vincent": 6320, "slovakia": 10991, "shared": 4207, "ascribed": 28025, "portuguese": 5077, "illumination": 21203, "[unused740]": 745, "##cycle": 23490, "curvature": 25045, "1730": 23272, "##chee": 25923, "ju": 18414, "relevance": 21923, "mead": 19855, "##\u00a5": 29648, "larger": 3469, "525": 25621, "##sport": 20205, "vedic": 25824, "\u3064": 1664, "developed": 2764, "pay": 3477, "slade": 18048, "clone": 17598, "mughal": 17877, "unified": 10562, "preliminary": 8824, "penitentiary": 29569, "rising": 4803, "canonical": 18562, "##rt": 5339, "rig": 19838, "fled": 6783, "diner": 15736, "##bla": 28522, "gaping": 21226, "##\u091c": 29855, "recess": 28290, "tertiary": 13553, "oak": 6116, "wr": 23277, "municipalities": 7602, "##\u11ab": 30021, "intent": 7848, "careers": 10922, "\u1d48": 1498, "##islav": 19834, "recreational": 10517, "rises": 9466, "##right": 15950, "tugs": 29306, "##bble": 11362, "olivia": 7710, "fashion": 4827, "shutter": 28180, "##nous": 18674, "amateur": 5515, "businessman": 6883, "##zak": 20685, "ra": 10958, "complexion": 28838, "##oud": 19224, "##wo": 12155, "cane": 11942, "professorship": 22661, "##\u2248": 30133, "##veda": 28614, "restoring": 16487, "science": 2671, "crunch": 24514, "jia": 25871, "pronouns": 26028, "munich": 7469, "122": 13092, "[unused200]": 205, "ringo": 25589, "fatty": 19101, "strains": 18859, "accused": 5496, "evidently": 15329, "carson": 9806, "spare": 8622, "cuba": 7394, "##kr": 21638, "nunez": 28454, "##oon": 7828, "tel": 10093, "##leigh": 13615, "aroma": 23958, "companions": 11946, "ryu": 19367, "tanks": 7286, "bedfordshire": 28430, "do": 2079, "##heimer": 18826, "ernst": 10728, "sunlight": 9325, "1500": 10347, "operators": 9224, "##lu": 7630, "devout": 26092, "rejoin": 25261, "sq": 5490, "terra": 14403, "curves": 10543, "shelton": 22230, "happen": 4148, "##\u68ee": 30408, "oslo": 9977, "aware": 5204, "##rington": 17281, "##\u8449": 30469, "##talk": 28014, "[unused966]": 971, "##poulos": 24662, "##\u062f": 15394, "chariot": 23507, "masculine": 14818, "audio": 5746, "riga": 17557, "transfer": 4651, "enemies": 6716, "##aby": 21275, "grandparents": 14472, "whore": 17219, "\u5b66": 1817, "##\u0909": 29849, "##itha": 26054, "ley": 25866, "orphans": 21478, "##ee": 4402, "##tore": 19277, "##very": 27900, "[unused719]": 724, "metal": 3384, "vijay": 17027, "\u2021": 1527, "[unused777]": 782, "gears": 19456, "herself": 2841, "shouldn": 5807, "transparency": 16987, "##ten": 6528, "tenderly": 26596, "ami": 26445, "##erton": 20995, "gazed": 11114, "prejudice": 18024, "trusted": 9480, "focal": 15918, "##dya": 25838, "##tly": 14626, "pathology": 19314, "reject": 15454, "\u5bbf": 1826, "blasts": 25829, "declines": 26451, "##using": 18161, "##bha": 22655, "westwood": 21730, "\u02b2": 1141, "goaltender": 21437, "defended": 8047, "careless": 23358, "fleets": 25515, "\u1d50": 1502, "##its": 12762, "seduce": 23199, "layla": 19786, "1761": 21364, "fantasia": 29203, "than": 2084, "furthermore": 7297, "##zuka": 22968, "##eet": 15558, "culinary": 20560, "superstar": 18795, "accident": 4926, "camera": 4950, "ends": 4515, "cairns": 21731, "commercially": 11088, "outskirts": 12730, "sol": 14017, "subject": 3395, "nan": 16660, "##llen": 12179, "teenage": 9454, "spokesperson": 15974, "bitten": 19026, "permits": 14245, "much": 2172, "tess": 15540, "kilometre": 13214, "##chrome": 20366, "pause": 8724, "##pate": 17585, "3a": 23842, "stems": 12402, "shallow": 8467, "popping": 20095, "cell": 3526, "giorgio": 17697, "hike": 21857, "shores": 13312, "advertising": 6475, "417": 27519, "defeats": 14222, "mira": 18062, "##\u044d": 29756, "memorial": 3986, "stalked": 15858, "vain": 15784, "sports": 2998, "guillermo": 21070, "prosecuted": 21651, "##dos": 12269, "##nbc": 28957, "deteriorating": 28440, "durban": 25040, "precursor": 14988, "amplitude": 22261, "cheek": 5048, "sites": 4573, "##chet": 20318, "##ji": 4478, "ensured": 16316, "recounted": 22906, "##gam": 22864, "oppose": 15391, "skaters": 24789, "euros": 19329, "agreements": 10540, "abandon": 10824, "kits": 18628, "monumental": 15447, "134": 15170, "\u0e15": 1411, "executive": 3237, "##swick": 27720, "dart": 14957, "improper": 24156, "silence": 4223, "progresses": 22901, "\u0261": 1116, "\u266d": 1627, "carrot": 25659, "##\u043e\u0432": 19259, "novel": 3117, "##oteric": 29112, "immersion": 27013, "innovations": 15463, "polynomials": 28175, "serie": 8668, "\u0f56": 1431, "\u222a": 1605, "somali": 16831, "dex": 20647, "bugs": 12883, "##fine": 23460, "being": 2108, "cats": 8870, "coat": 5435, "##\u30d2": 30245, "molten": 23548, "punta": 27377, "[unused500]": 505, "conceptual": 17158, "bartlett": 20081, "desperate": 7143, "genuinely": 15958, "\u0f63": 1435, "district": 2212, "insulting": 23979, "stables": 16232, "piper": 11939, "redemption": 18434, "[unused380]": 385, "fever": 9016, "relinquished": 26566, "delivery": 6959, "scramble": 25740, "desperately": 9652, "blues": 5132, "miscellaneous": 25408, "coa": 28155, "bobbed": 29579, "[unused604]": 609, "##ignon": 24796, "##gizing": 28660, "reaper": 19559, "manager": 3208, "michaels": 17784, "campos": 26925, "enlist": 28845, "requesting": 17942, "berman": 29482, "calabria": 29430, "dominates": 29532, "donetsk": 29151, "deeper": 6748, "pokemon": 20421, "edict": 24754, "ongoing": 7552, "pursuit": 8463, "surprises": 20096, "watt": 15231, "##mm": 7382, "serves": 4240, "[unused658]": 663, "digital": 3617, "transmission": 6726, "sudbury": 26487, "1781": 16788, "##kota": 27380, "##sten": 16173, "method": 4118, "stranger": 7985, "strapped": 18019, "cry": 5390, "lent": 15307, "[unused828]": 833, "curtain": 11002, "##\u05d8": 29795, "##sp": 13102, "aluminum": 13061, "consulting": 10552, "initiative": 6349, "bad": 2919, "interactions": 10266, "##eon": 10242, "libertarian": 19297, "appointment": 6098, "252": 22898, "##\uff01": 30512, "registered": 5068, "stadium": 3346, "lean": 8155, "moving": 3048, "vamp": 20279, "133": 14506, "vc": 18315, "calmly": 12885, "condemned": 10033, "##iko": 12676, "##sian": 17043, "pending": 14223, "users": 5198, "hugely": 27564, "cis": 20199, "kidnap": 22590, "##ova": 7103, "##oration": 21223, "##ppy": 27659, "97": 5989, "font": 15489, "parentheses": 27393, "\u306f": 1672, "##gia": 10440, "muriel": 27616, "interred": 13917, "cabinet": 5239, "##uso": 26658, "academies": 20994, "\u00bd": 1092, "##iad": 28665, "##su": 6342, "recover": 8980, "##\u0142": 18818, "vance": 16672, "##ener": 24454, "[": 1031, "delighted": 15936, "##edd": 22367, "whig": 21632, "translations": 11913, "matching": 9844, "living": 2542, "nbc": 6788, "lobby": 9568, "afterward": 9707, "##100": 18613, "1751": 24440, "acquiring": 13868, "illusions": 24883, "clustered": 25221, "##\u09a8": 29902, "##lusion": 24117, "revealing": 8669, "nearer": 20388, "\u1166": 1473, "sacrifices": 18502, "contributions": 5857, "fun": 4569, "1779": 17616, "eggs": 6763, "assessing": 20077, "mint": 12927, "silvio": 28107, "students": 2493, "stink": 27136, "##\u10e3": 29990, "mike": 3505, "##dhar": 25632, "ab": 11113, "254": 22234, "creaked": 28068, "aces": 20232, "warmer": 16676, "\u4e0b": 1743, "[unused234]": 239, "masonry": 18103, "explosions": 18217, "siberia": 16881, "dictated": 23826, "mixer": 23228, "http": 8299, "lending": 18435, "palaces": 22763, "panda": 25462, "mater": 16289, "##cans": 26642, "daytime": 12217, "humid": 14178, "kenton": 25446, "poke": 26202, "philips": 19087, "rubble": 17538, "[unused676]": 681, "collect": 8145, "novelty": 21160, "honolulu": 16598, "unused": 15171, "liv": 22135, "fernandez": 12023, "coached": 8868, "##dermott": 29370, "2015": 2325, "waterways": 21938, "ethics": 9615, "outer": 6058, "whipped": 12428, "exclude": 23329, "poetic": 13805, "?": 1029, "barnsley": 25139, "worship": 7425, "answers": 6998, "rudolph": 18466, "haunted": 11171, "consistency": 18700, "##moto": 15319, "kentucky": 5612, "cougars": 26317, "every": 2296, "face": 2227, "distributor": 16632, "##\u090f": 29850, "hodge": 23148, "driven": 5533, "bathed": 24614, "indicted": 21801, "lanes": 10914, "##eal": 15879, "greenberg": 24190, "towed": 18948, "##building": 25820, "tier": 7563, "asbestos": 29191, "economist": 11708, "zoom": 24095, "mutations": 14494, "amino": 13096, "irrelevant": 22537, "1803": 12651, "lullaby": 29149, "##ili": 18622, "lesions": 22520, "pounding": 9836, "chilling": 27017, "scorpion": 22015, "##fying": 14116, "wicked": 10433, "trim": 12241, "203": 18540, "donaldson": 23164, "flick": 17312, "##ographic": 13705, "avoiding": 9992, "petitioned": 22527, "dialect": 9329, "##ast": 14083, "25": 2423, "pac": 14397, "scar": 11228, "said": 2056, "durga": 28746, "gaze": 3657, "hiv": 9820, "##iting": 15402, "portrayal": 13954, "monmouth": 20433, "urging": 14328, "unharmed": 28150, "##maid": 28478, "heller": 25038, "protesting": 21248, "##bach": 7693, "\u7701": 1920, "consequences": 8465, "##jevic": 26782, "##zer": 6290, "burns": 7641, "leverage": 21155, "doorbell": 25422, "strangely": 13939, "guyana": 18786, "irvine": 16272, "janet": 9965, "precise": 10480, "veto": 22102, "##let": 7485, "##\u2091": 30090, "steals": 15539, "deco": 21933, "stimulated": 25194, "polite": 13205, "lutheran": 10034, "taught": 4036, "purposely": 24680, "1830s": 20400, "##kled": 19859, "political": 2576, "spheres": 19885, "##ivation": 25761, "animator": 25132, "terraces": 25633, "reagan": 11531, "vowel": 12710, "##if": 10128, "##ule": 9307, "broader": 12368, "##lance": 23078, "infinity": 15579, "resurrected": 23053, "universidad": 16501, "321": 24030, "minh": 19538, "tiger": 6816, "correction": 18140, "marketing": 5821, "foo": 29379, "jew": 16522, "wong": 11789, "pose": 13382, "thicker": 19638, "desktop": 15363, "witnessing": 24740, "advised": 9449, "seized": 8243, "##own": 12384, "judith": 12924, "lobbying": 19670, "havoc": 22156, "warrington": 23051, "##zed": 5422, "consolation": 24831, "subscribers": 17073, "malmo": 23643, "herr": 23506, "curls": 14484, "viz": 26619, "counted": 8897, "utilize": 16462, "##load": 11066, "##turing": 16037, "it": 2009, "hq": 16260, "##irs": 18894, "kane": 8472, "scorer": 10835, "##\u0f58": 29968, "vintage": 13528, "spectator": 21027, "##urbed": 29595, "shrubs": 18812, "holidays": 11938, "nellie": 25365, "welded": 29014, "judgment": 8689, "cleric": 29307, "appoint": 16823, "bunk": 25277, "volumes": 6702, "lawyers": 9559, "##ete": 12870, "colt": 9110, "electrical": 5992, "view": 3193, "symphonic": 18957, "feudal": 16708, "floats": 24885, "##!": 29612, "[unused622]": 627, "violence": 4808, "##\u1161": 30006, "mitsubishi": 19695, "tracks": 3162, "snaps": 20057, "disciplinary": 17972, "etat": 17997, "firms": 9786, "jared": 8334, "marsden": 29558, "unincorporated": 7754, "[unused355]": 360, "threatens": 17016, "karma": 19902, "aug": 15476, "1732": 27582, "##omic": 22026, "dan": 4907, "disagreed": 18335, "nucleus": 13502, "litigation": 15382, "##pala": 19636, "blur": 14819, "##ena": 8189, "##\u4e45": 30274, "dixie": 18910, "irina": 25404, "oxide": 15772, "traverse": 20811, "gill": 12267, "mats": 22281, "pleasantly": 27726, "vt": 28879, "negotiated": 13630, "##light": 7138, "genie": 22519, "##venor": 26806, "rosalie": 29564, "witnessed": 9741, "##acious": 20113, "##zione": 20574, "##\u2026": 30064, "ache": 12336, "407": 28941, "impromptu": 29213, "greenfield": 26713, "paragraph": 20423, "fantastic": 10392, "phrases": 15672, "historically": 7145, "##dium": 12811, "##enne": 24336, "shooter": 13108, "rhythms": 17900, "##\u0640": 29832, "##town": 4665, "presently": 12825, "painted": 4993, "[unused486]": 491, "##\u0926": 29861, "cooler": 14976, "118": 12963, "appalled": 29279, "lucknow": 23571, "expansive": 25145, "prowess": 26120, "[unused517]": 522, "[unused18]": 19, "##bil": 14454, "##\u30b3": 30230, "postgraduate": 15438, "symmetry": 14991, "##acle": 18630, "procedural": 24508, "##dents": 28986, "##pe": 5051, "interrupt": 17938, "hamid": 24811, "metres": 3620, "using": 2478, "gospel": 8036, "minsk": 20790, "megan": 12756, "playful": 18378, "throbbing": 17061, "nigel": 12829, "publicized": 24928, "layton": 23103, "##rid": 14615, "##etic": 16530, "[unused529]": 534, "carmel": 19443, "first": 2034, "[unused268]": 273, "orthogonal": 28721, "simon": 4079, "administratively": 23710, "##sis": 6190, "[unused474]": 479, "stranded": 15577, "dumping": 23642, "##nch": 12680, "##christ": 26654, "habits": 14243, "antiquity": 16433, "##rter": 19418, "manufacturers": 8712, "[unused605]": 610, "subscription": 15002, "teenagers": 12908, "compromise": 12014, "##\u0ca8": 29936, "terminating": 23552, "superman": 10646, "padre": 28612, "prints": 11204, "islam": 7025, "bobo": 27418, "acting": 3772, "widowed": 22874, "manipulated": 20063, "rosen": 21701, "[unused911]": 916, "affects": 13531, "tia": 27339, "\u3080": 1679, "monroe": 9747, "##wig": 16279, "hua": 23064, "##ination": 12758, "exist": 4839, "distributors": 22495, "##ael": 21147, "##oat": 16503, "sergeant": 6722, "smyth": 28103, "##athi": 25457, "\u7684": 1916, "##30": 14142, "prototypes": 19599, "gentlemen": 11218, "beforehand": 25828, "##ege": 24746, "construction": 2810, "blackwell": 18776, "greatly": 6551, "thirsty": 24907, "asked": 2356, "groans": 27778, "##\u04cf": 29765, "jerusalem": 6744, "embodied": 25405, "[unused405]": 410, "protagonist": 10191, "teaser": 27071, "epsilon": 28038, "dining": 7759, "##arable": 25236, "385": 24429, "greedy": 20505, "##rth": 15265, "rift": 16931, "##trics": 29392, "forum": 7057, "latin": 3763, "##anne": 20147, "muir": 23110, "##chang": 22305, "motorsport": 21044, "sox": 9175, "##vinsky": 27704, "##oga": 18170, "enclosed": 10837, "\u0995": 1353, "##yi": 10139, "sour": 14768, "trait": 18275, "\u2f65": 1634, "spit": 13183, "skylar": 27970, "##inger": 9912, "worn": 6247, "##zzy": 28753, "road": 2346, "handler": 28213, "hauled": 13161, "expense": 10961, "sane": 22856, "outgoing": 22011, "murder": 4028, "bangs": 28490, "##anu": 24076, "differentiation": 20582, "elton": 19127, "##ddin": 18277, "##inating": 19185, "##merie": 28677, "source": 3120, "\u0906": 1312, "senior": 3026, "##ored": 19574, "keep": 2562, "##mora": 22122, "blew": 8682, "chester": 8812, "[unused570]": 575, "telescopes": 28026, "hampstead": 29557, "resorts": 16511, "farmland": 16439, "partridge": 26079, "##dia": 9032, "##\u0430\u043d": 28995, "portrayed": 6791, "wisconsin": 5273, "2021": 25682, "mug": 14757, "characterization": 23191, "innocent": 7036, "ricky": 11184, "##factory": 21450, "invest": 15697, "triggers": 27099, "absorbed": 9063, "bsc": 23533, "japanese": 2887, "vibration": 17880, "lobes": 24423, "imagined": 8078, "fearful": 19725, "##rock": 16901, "tulsa": 16631, "##vish": 24968, "au": 8740, "multiplication": 24856, "[unused881]": 886, "ballistic": 19630, "visionary": 28036, "horribly": 27762, "##elin": 18809, "klein": 12555, "clips": 15281, "profile": 6337, "1710": 23841, "vuelta": 21441, "\u30e9": 1731, "suppress": 16081, "travelling": 8932, "soothing": 16684, "exhaustion": 15575, "##uze": 20395, "##bet": 20915, "bodyguard": 16174, "cheryl": 19431, "\u3086": 1683, "extraordinary": 9313, "frequently": 4703, "##v": 2615, "robe": 11111, "floated": 13715, "##istic": 6553, "francois": 8173, "banged": 22843, "heiress": 20020, "polk": 20819, "##ending": 18537, "river": 2314, "smash": 15132, "discussions": 10287, "##\u7acb": 30457, "[unused449]": 454, "beirut": 15335, "gavin": 9448, "health": 2740, "maybe": 2672, "nr": 17212, "##\u1166": 30009, "##\u4ec1": 30284, "corbett": 24119, "##put": 18780, "##\u0917": 29853, "\u05d4": 1245, "##bolt": 22803, "##stic": 10074, "acacia": 24766, "committee": 2837, "collisions": 28820, "finnish": 6983, "jewel": 13713, "khyber": 28416, "##\u03ba": 29726, "made": 2081, "\u09b0": 1372, "hasty": 27151, "rowland": 20539, "sylvester": 20016, "##ishly": 19983, "suburbs": 9435, "##\u58eb": 30333, "##sby": 14478, "##run": 15532, "sleeves": 15114, "##trick": 22881, "considering": 6195, "##vor": 14550, "assertion": 23617, "konrad": 22958, "laszlo": 28226, "marijuana": 16204, "##kling": 20260, "proper": 5372, "researched": 18800, "\u0686": 1303, "facilitated": 19601, "milford": 22622, "##zbek": 28733, "##rmi": 28550, "leningrad": 15930, "fifteen": 5417, "##dina": 18979, "specialty": 12233, "##wari": 20031, "shoreline": 17721, "##hood": 9021, "wooden": 4799, "buren": 29470, "##dah": 18417, "enhance": 11598, "silesian": 20453, "fluids": 20989, "reapers": 27733, "##ttle": 26328, "##bbled": 12820, "##mity": 16383, "educating": 25088, "490": 22288, "[unused531]": 536, "fingered": 28842, "grip": 6218, "tha": 22794, "kent": 5982, "sloan": 19024, "##\u590f": 30334, "confessed": 14312, "sydney": 3994, "matter": 3043, "railing": 15747, "winslow": 26600, "comprise": 15821, "deng": 26957, "exhibition": 4538, "\u30e2": 1727, "chased": 13303, "##lver": 26229, "##zzled": 17269, "christi": 21359, "##ossa": 21842, "captains": 15755, "cows": 17188, "fours": 23817, "[unused485]": 490, "lovely": 8403, "walters": 19097, "oblast": 10379, "muse": 18437, "canceled": 13261, "systematic": 11778, "clinics": 17865, "iroquois": 23015, "bogota": 21240, "##\u5ca1": 30358, "##\u0254": 29679, "let": 2292, "short": 2460, "cigarette": 9907, "##dling": 14423, "necessarily": 9352, "am": 2572, "participate": 5589, "kilometer": 20595, "##chia": 20881, "##planes": 26634, "inflammatory": 20187, "honours": 8762, "arrived": 3369, "##10": 10790, "canucks": 26177, "varying": 9671, "[unused702]": 707, "blunt": 14969, "reproduced": 22296, "raids": 11217, "procedures": 8853, "\u9577": 1967, "evil": 4763, "reese": 15883, "afro": 17694, "anwar": 28372, "inspired": 4427, "cradled": 23774, "revolutionary": 6208, "specialist": 8325, "vladimir": 8748, "##iac": 20469, "door": 2341, "##\u56d7": 30323, "female": 2931, "39th": 22702, "lots": 7167, "referencing": 28789, "creators": 17277, "contributors": 16884, "overthrow": 16857, "reid": 9027, "dexter": 14375, "##unes": 26639, "[unused725]": 730, "kayla": 26491, "screenings": 25437, "##llary": 24435, "shady": 22824, "##\u1165": 30008, "dei": 14866, "roanoke": 25899, "deux": 24756, "flashbacks": 28945, "osborne": 16732, "##cote": 19800, "##alla": 25425, "frontier": 8880, "oman": 16640, "\u1d43": 1496, "angelica": 19458, "axial": 26819, "diving": 9404, "\u571f": 1801, "publishes": 12466, "karachi": 15381, "##\u1d50": 30038, "conferred": 15186, "\u624b": 1858, "protector": 16167, "trips": 9109, "employees": 5126, "[unused124]": 129, "ambiguous": 20080, "bangalore": 14022, "##rove": 17597, "classmate": 23175, "san": 2624, "bloc": 15984, "##dry": 21190, "lineup": 10515, "[unused751]": 756, "privy": 14452, "influences": 8092, "mansions": 26842, "forehead": 6130, "\u533a": 1782, "montgomery": 8482, "\u2665": 1625, "crow": 11465, "shoe": 10818, "##sti": 16643, "palestinian": 9302, "##\u3002": 30162, "discourse": 15152, "##gre": 17603, "grimace": 25898, "##ige": 25538, "##vo": 6767, "##yan": 7054, "stare": 6237, "##lli": 6894, "unease": 27880, "ville": 20184, "newscasts": 24482, "gestured": 11574, "detailing": 17555, "##\u9673": 30498, "clarke": 8359, "vanishing": 24866, "##ya": 3148, "cleveland": 6044, "##\u0459": 29762, "hassan": 13222, "revenues": 12594, "rumble": 15658, "##anga": 18222, "charter": 6111, "falling": 4634, "groove": 14100, "faso": 22773, "com": 4012, "implement": 10408, "magnesium": 24983, "vh1": 26365, "\u0bae": 1389, "posts": 8466, "1712": 28460, "concerns": 5936, "headlined": 25214, "falcons": 14929, "##nova": 13455, "##ructured": 26134, "alfredo": 19423, "efficiency": 8122, "10th": 6049, "\u10d3": 1441, "##zine": 21254, "pumpkin": 25730, "##cene": 17968, "pretend": 9811, "await": 26751, "parapet": 27372, "lacey": 16355, "russ": 18072, "leto": 24543, "opposing": 10078, "doctorate": 8972, "complicated": 8552, "##elial": 24587, "shelf": 11142, "sympathetic": 13026, "slightly": 3621, "\u1107": 1460, "##umber": 29440, "##taken": 25310, "chanting": 22417, "##ni": 3490, "##mous": 27711, "bullets": 10432, "##trom": 13887, "convertible": 22840, "fi": 10882, "professionals": 8390, "[unused554]": 559, "learners": 26262, "calculated": 10174, "celebrity": 8958, "connacht": 27062, "[unused254]": 259, "dysfunction": 28466, "express": 4671, "[unused601]": 606, "workplace": 16165, "\u1da0": 1512, "[unused51]": 52, "genesis": 11046, "kept": 2921, "660": 20982, "rub": 14548, "rural": 3541, "petty": 11612, "flooding": 9451, "restore": 9239, "pitches": 19299, "##mini": 25300, "unseen": 16100, "tightly": 7371, "##ward": 7652, "##girl": 15239, "##jin": 14642, "primaries": 27419, "coordinated": 14206, "380": 17014, "[unused315]": 320, "fascist": 14870, "gershwin": 25600, "min": 8117, "##ented": 14088, "kilometers": 7338, "scores": 7644, "rowing": 12037, "[unused29]": 30, "bbc": 4035, "owned": 3079, "\u0142": 1105, "qualifiers": 18956, "smallest": 10479, "##channel": 26058, "warehouse": 9746, "##ivist": 21997, "ely": 20779, "slash": 18296, "tensed": 15225, "1859": 8165, "##proof": 18907, "cock": 10338, "[unused908]": 913, "##onga": 26356, "groan": 13001, "ecosystem": 16927, "supporter": 10129, "marie": 5032, "mckay": 16225, "old": 2214, "presentations": 18216, "budgets": 26178, "wessex": 27886, "##\uff0d": 30516, "repeat": 9377, "hauling": 23113, "philippe": 11169, "justin": 6796, "ties": 7208, "conference": 3034, "cozy": 26931, "softened": 16573, "typing": 22868, "##uck": 12722, "[unused596]": 601, "[unused235]": 240, "1985": 3106, "##\u4f0a": 30288, "previously": 3130, "rfc": 14645, "submit": 12040, "clemson": 25906, "jurisdiction": 7360, "chiba": 27368, "nasser": 26099, "glands": 23340, "gora": 26967, "[unused609]": 614, "totaled": 23596, "thai": 7273, "162": 17832, "gould": 14913, "electromagnetic": 17225, "barton": 12975, "##\u0925": 29860, "##lle": 6216, "katy": 17870, "##mber": 21784, "recipient": 7799, "teen": 9458, "sport": 4368, "jana": 23341, "corn": 9781, "arrival": 5508, "##min": 10020, "violated": 14424, "##kiewicz": 28563, "bananas": 26191, "##nen": 10224, "##yria": 20379, "##\u5206": 30301, "caracas": 21675, "rushed": 6760, "solo": 3948, "[unused952]": 957, "montrose": 24990, "##\u0111": 29671, "##bham": 25522, "bury": 11010, "teaming": 27025, "arranger": 13981, "shrinking": 28375, "paradox": 20506, "1604": 28754, "##trix": 29184, "biomass": 28148, "greensboro": 27905, "logo": 8154, "isn": 3475, "make": 2191, "potsdam": 26554, "presumably": 10712, "santo": 11685, "48th": 27787, "[unused798]": 803, "stationed": 8895, "estimated": 4358, "\u09a5": 1363, "challenged": 8315, "##\u3068": 30192, "grown": 4961, "intruder": 22841, "##lten": 29005, "[unused165]": 170, "dress": 4377, "\u044c": 1207, "waterfall": 14297, "bourne": 15803, "##aris": 23061, "##sphere": 23874, "##zam": 20722, "identified": 4453, "hunger": 9012, "educated": 5161, "robinson": 6157, "arbor": 19679, "schwartz": 16756, "##\u044b": 29113, "prank": 26418, "##rled": 27501, "##ilis": 24411, "commenced": 8420, "grain": 8982, "hopper": 20517, "howl": 22912, "population": 2313, "skull": 7412, "##rgos": 22280, "2002": 2526, "##\u5d0e": 30360, "inducted": 8120, "listening": 5962, "maintain": 5441, "connector": 19400, "##cke": 19869, "harmonies": 28594, "moreover": 9308, "##nging": 22373, "[unused736]": 741, "##chaft": 29043, "breathless": 16701, "northwest": 4514, "plays": 3248, "vol": 5285, "##\u5fe0": 30378, "correspond": 17254, "##lee": 10559, "farm": 3888, "littered": 24777, "##eter": 15141, "meters": 5563, "moist": 11052, "##phone": 9864, "eyebrow": 9522, "westbound": 24717, "##\u1d9c": 30046, "openly": 10132, "thugs": 24106, "cadence": 23620, "tavi": 24283, "##cine": 16567, "talents": 11725, "topology": 19587, "\u0452": 1211, "add": 5587, "##gne": 10177, "##ncia": 22750, "[unused196]": 201, "##ough": 10593, "facility": 4322, "rulers": 11117, "opportunities": 6695, "corridors": 17506, "ireland": 3163, "pomerania": 18631, "westminster": 9434, "##rative": 18514, "1978": 3301, "backyard": 16125, "termed": 12061, "rican": 13641, "1651": 29077, "honour": 6225, "cuban": 9642, "##aus": 20559, "\u00b5": 1085, "truck": 4744, "pivotal": 20369, "obtained": 4663, "##clops": 28659, "jerk": 12181, "based": 2241, "[unused557]": 562, "crystalline": 24628, "teach": 6570, "measuring": 9854, "[unused540]": 545, "component": 6922, "##manship": 21530, "[unused964]": 969, "fog": 9666, "senator": 5205, "error": 7561, "confederate": 8055, "[unused149]": 154, "directing": 9855, "fireplace": 13788, "freaked": 22783, "mustered": 21900, "siberian": 21822, "compare": 12826, "plc": 15492, "whichever": 29221, "riverside": 12497, "deception": 17575, "paradise": 9097, "emails": 22028, "rings": 7635, "sl": 22889, "##com": 9006, "nbl": 28013, "crotch": 28629, "get": 2131, "buyer": 17634, "surveys": 12265, "intervention": 8830, "proof": 6947, "[unused281]": 286, "electronics": 8139, "macedonia": 11492, "metis": 26057, "theater": 4258, "intern": 25204, "grind": 23088, "logic": 7961, "ck": 23616, "[unused195]": 200, "84": 6391, "natalie": 10829, "##\u4e09": 30267, "333": 21211, "mckenzie": 18506, "rippled": 26862, "pioneered": 16193, "esther": 14631, "gets": 4152, "##uss": 17854, "\u77f3": 1922, "maritime": 7803, "vocalist": 8032, "##\u03b7": 24824, "apical": 29197, "tag": 6415, "eliminate": 11027, "buena": 27493, "##\u7fa9": 30462, "[unused453]": 458, "##personal": 28823, "intercourse": 23198, "device": 5080, "##americana": 27026, "canadian": 3010, "lai": 21110, "980": 25195, "denied": 6380, "bob": 3960, "impression": 8605, "c2": 29248, "value": 3643, "\u0634": 1283, "##red": 5596, "cl": 18856, "ross": 5811, "blanc": 18698, "drove": 5225, "equals": 19635, "##\u0ba8": 29922, "continued": 2506, "eldest": 7310, "dwarfs": 28984, "lives": 3268, "[unused79]": 80, "sitting": 3564, "scope": 9531, "exiles": 27127, "stabbing": 21690, "##\u0294": 29705, "[unused965]": 970, "diploma": 9827, "yer": 20416, "rohan": 28605, "tanaka": 21829, "header": 20346, "yielding": 21336, "##nik": 8238, "##\u6226": 30382, "dissent": 24116, "eternity": 12715, "prima": 21111, "cr": 13675, "##eem": 21564, "##u": 2226, "foley": 17106, "\u0290": 1136, "##ances": 26755, "delayed": 8394, "##\u2020": 30061, "posing": 20540, "archival": 22796, "brake": 13428, "24": 2484, "mounted": 5614, "gleam": 24693, "jimi": 27624, "[unused357]": 362, "shu": 18454, "grady": 19011, "gallon": 25234, "posters": 14921, "[unused984]": 989, "##riety": 27840, "burned": 5296, "206": 18744, "cu": 12731, "galleries": 11726, "impossible": 5263, "heel": 12073, "\u2ea9": 1632, "##edes": 18352, "ranking": 5464, "##rse": 22573, "sensitive": 7591, "[unused533]": 538, "suspects": 13172, "1935": 4437, "gothenburg": 22836, "sultan": 7544, "##zko": 29002, "beverage": 19645, "##oe": 8913, "festivals": 7519, "migratory": 22262, "jacksonville": 13057, "tabitha": 21581, "spiders": 14160, "##erman": 18689, "occurring": 10066, "sulfate": 26754, "attitude": 7729, "\u6210": 1854, "orchards": 22976, "avalanche": 18846, "mana": 24951, "diver": 17856, "##dick": 24066, "\u90e8": 1960, "duel": 14216, "##lston": 21540, "alpha": 6541, "sorcerer": 23324, "developments": 8973, "discipline": 9009, "included": 2443, "november": 2281, "iteration": 27758, "nos": 16839, "hume": 20368, "lunged": 17755, "##rag": 29181, "##alo": 23067, "neo": 9253, "520": 19611, "nostrils": 15325, "rei": 24964, "##etti": 18319, "fluent": 19376, "directions": 7826, "flashes": 16121, "loop": 7077, "\u3082": 1681, "\u0636": 1285, "##rm": 10867, "clinton": 7207, "sudden": 5573, "corrupt": 13593, "quarter": 4284, "superfamily": 24169, "transmit": 19818, "##\u30e7": 30256, "denomination": 18683, "eki": 23174, "great": 2307, "hungry": 7501, "\u0578": 1232, "servicemen": 26714, "\u305d": 1660, "nueva": 24536, "various": 2536, "looks": 3504, "recipe": 17974, "dams": 17278, "##gical": 26715, "##guard": 18405, "linux": 11603, "my": 2026, "trend": 9874, "spectacle": 21177, "rubs": 28860, "nightingale": 21771, "##rbin": 27366, "litter": 19070, "\u10e2": 1453, "syllables": 20732, "otter": 22279, "urban": 3923, "1840": 8905, "netting": 26909, "confederation": 11078, "riding": 5559, "liberty": 7044, "##ar": 2906, "##lellan": 25839, "electoral": 6092, "##\u4e0d": 30270, "makes": 3084, "uss": 7234, "drawer": 13065, "1853": 8933, "airship": 27636, "creating": 4526, "duran": 22959, "mercantile": 25420, "gap": 6578, "itf": 27682, "nicolas": 9473, "prefecture": 7498, "working": 2551, "##\u2022": 30063, "26th": 14935, "[unused837]": 842, "chancel": 16482, "approaches": 8107, "injured": 5229, "honor": 3932, "hours": 2847, "conductors": 23396, "##fk": 24316, "plumbing": 27902, "##ntine": 26730, "##rank": 26763, "rave": 23289, "##wn": 7962, "orioles": 18893, "outstretched": 21059, "travels": 7930, "susannah": 20471, "##nham": 20465, "ska": 24053, "flu": 19857, "nichols": 15746, "reminder": 14764, "budget": 5166, "cheered": 25471, "##way": 4576, "calcutta": 13419, "##\u5408": 30318, "##rain": 21166, "lay": 3913, "##sque": 17729, "potato": 14557, "##\u2076": 30075, "reasonably": 16286, "revolves": 19223, "stalking": 20070, "78": 6275, "drifting": 15013, "advantage": 5056, "chronic": 11888, "\"": 1000, "employs": 13495, "sebastian": 6417, "##nesia": 21509, "coca": 16787, "friday": 5958, "overs": 15849, "period": 2558, "afc": 10511, "persia": 16667, "##\u30aa": 30225, "##se": 3366, "##\u8857": 30472, "##ais": 15593, "greatest": 4602, "titan": 16537, "lincoln": 5367, "##nsky": 25655, "debating": 20767, "wedding": 5030, "soils": 13622, "##kian": 28545, "##bow": 18912, "`": 1036, "suspended": 6731, "keane": 27228, "sd": 17371, "safety": 3808, "\u05d6": 1247, "single": 2309, "##woman": 10169, "malls": 25943, "stepmother": 26959, "thighs": 9222, "differed": 19541, "criterion": 19229, "breakup": 19010, "ingredients": 12760, "applause": 20737, "deliver": 8116, "##ode": 10244, "barry": 6287, "##rrie": 22155, "1666": 27407, "bowl": 4605, "govern": 21208, "##brates": 25258, "##\u0bae": 29925, "residence": 5039, "[unused621]": 626, "##osphere": 25444, "allie": 16944, "trunk": 8260, "virgil": 17270, "ministries": 16410, "paterson": 19162, "adele": 17623, "##rator": 16259, "##fly": 14151, "elephants": 16825, "inventions": 21644, "jonah": 15617, "##oki": 23212, "southbound": 19751, "justification": 19777, "\u03c9": 1179, "flinched": 19201, "margaret": 5545, "##\u53f2": 30316, "000": 2199, "aires": 9149, "\u9752": 1975, "plainly": 24250, "##tip": 25101, "researcher": 10753, "wurttemberg": 16346, "traditional": 3151, "dallas": 5759, "revenge": 7195, "\uff09": 1988, "dead": 2757, "##ello": 15350, "depictions": 20818, "[unused68]": 69, "resulting": 4525, "##kov": 7724, "radio": 2557, "[unused957]": 962, "administer": 21497, "further": 2582, "##app": 29098, "vienna": 6004, "motif": 16226, "react": 10509, "indifferent": 24436, "hammer": 8691, "reopened": 11882, "##act": 18908, "increasingly": 6233, "unsure": 12422, "parsons": 13505, "deer": 8448, "brandt": 19407, "\u0434": 1184, "insulation": 25710, "cloak": 11965, "library": 3075, "pi": 14255, "sampson": 22041, "sheldon": 19369, "peugeot": 26385, "slits": 29199, "garment": 19002, "peck": 18082, "269": 25717, "=": 1027, "##ppel": 27877, "marketed": 11625, "murderers": 28882, "45": 3429, "vessels": 6470, "artworks": 22000, "wyatt": 12986, "videos": 6876, "patron": 9161, "listener": 19373, "bachelor": 5065, "##nio": 27678, "##ital": 18400, "formed": 2719, "##iques": 19516, "liam": 8230, "[unused768]": 773, "##mate": 8585, "reelected": 20847, "neurons": 15698, "##otted": 26174, "##uman": 19042, "gma": 20917, "cardboard": 19747, "[unused153]": 158, "burmese": 14468, "luzon": 21622, "##gement": 20511, "eve": 6574, "thorpe": 20249, "arriving": 7194, "pl": 20228, "##mp": 8737, "tilt": 17010, "symbols": 9255, "##ge": 3351, "furnace": 17533, "brahms": 28419, "invasions": 23536, "hiding": 6318, "\u062d": 1276, "bei": 21388, "annoyed": 11654, "describing": 7851, "gregorian": 25847, "networking": 14048, "waters": 5380, "\u0458": 1214, "sort": 4066, "dixon": 11357, "depth": 5995, "##vid": 17258, "accountability": 17842, "concacaf": 22169, "goa": 15244, "commanding": 7991, "decree": 10037, "offerings": 14927, "contemporaries": 16682, "optimism": 27451, "taxa": 23726, "disclosed": 21362, "gardiner": 21143, "theoretically": 22634, "[unused493]": 498, "##enting": 26951, "snorted": 15235, "tournaments": 8504, "belts": 18000, "dioxide": 14384, "prepare": 7374, "occasions": 6642, "rome": 4199, "verse": 7893, "[unused790]": 795, "##ours": 22957, "treasure": 8813, "hadley": 21681, "##unk": 16814, "xander": 29019, "attempting": 7161, "trench": 14185, "relatives": 9064, "##erate": 22139, "latitude": 15250, "stilled": 22791, "##imi": 27605, "tournament": 2977, "dickinson": 17590, "##oris": 21239, "ling": 17002, "harvesting": 21534, "title": 2516, "instructions": 8128, "wasn": 2347, "critics": 4401, "##rage": 24449, "bottles": 11015, "folds": 15439, "bid": 7226, "[unused748]": 753, "coating": 18898, "richard": 2957, "ripple": 24644, "always": 2467, "[unused294]": 299, "##cial": 13247, "##fin": 16294, "##ges": 8449, "constantly": 7887, "penguins": 18134, "phenomena": 13352, "th": 16215, "crust": 19116, "ismail": 19214, "##rh": 25032, "surfaced": 15791, "ringing": 13060, "##rred": 20529, "camps": 7958, "factor": 5387, "##70": 19841, "barron": 23594, "tell": 2425, "crossed": 4625, "tx": 19067, "conception": 13120, "loch": 14941, "##rad": 12173, "searing": 25764, "bush": 5747, "\ufb01": 1984, "mccormick": 23213, "bleak": 21657, "questioning": 11242, "hove": 25215, "##lous": 15534, "1744": 25846, "ridiculous": 9951, "rider": 7945, "repay": 24565, "windshield": 19521, "##oning": 13369, "##vara": 24516, "prohibited": 10890, "cambodian": 24417, "##andra": 29159, "innate": 25605, "##21": 17465, "defines": 11859, "john": 2198, "mcintosh": 29052, "regarded": 5240, "chevrolet": 14724, "gambling": 12219, "##land": 3122, "cade": 18615, "##\u00b0": 7737, "[unused284]": 289, "perished": 23181, "\u1d65": 1510, "enthusiastic": 14727, "commentator": 12268, "helmut": 24515, "##pet": 22327, "##\u0cb0": 29937, "arrest": 6545, "thieves": 15862, "##\u10d7": 29980, "personalities": 12857, "193": 19984, "##iki": 17471, "shrill": 28349, "overly": 15241, "[unused623]": 628, "ponds": 16879, "sw": 25430, "laurent": 14718, "accord": 15802, "administrators": 15631, "wwf": 16779, "\u0647": 1297, "morris": 6384, "choke": 16769, "poorer": 27196, "affiliates": 18460, "canine": 28735, "required": 3223, "acre": 7456, "own": 2219, "aquino": 24183, "sounding": 9391, "assembled": 9240, "##stis": 29472, "somerville": 27209, "markham": 26197, "conway": 14783, "not": 2025, "##ree": 9910, "amplifier": 22686, "##mo": 5302, "##\u0282": 29695, "##\u2500": 30142, "elaborated": 25187, "s": 1055, "rattled": 19252, "taylor": 4202, "\u21d2": 1591, "[unused705]": 710, "criminals": 12290, "six": 2416, "adjust": 14171, "merit": 7857, "##gus": 12349, "loser": 10916, "\u0925": 1324, "##shore": 19208, "##kell": 18690, "affecting": 12473, "##\u0636": 29827, "missed": 4771, "admiration": 17005, "uta": 28981, "kanye": 29270, "\u05da": 1251, "##cko": 19665, "exit": 6164, "above": 2682, "outbreak": 8293, "visiting": 5873, "discomfort": 17964, "utilized": 12550, "festival": 2782, "archway": 28189, "fabio": 25616, "##get": 18150, "dried": 9550, "\u062e": 1277, "1733": 27230, "associate": 5482, "exhibit": 8327, "probability": 9723, "transatlantic": 26617, "exponential": 27258, "[unused634]": 639, "1868": 7582, "syntax": 20231, "facing": 5307, "loosely": 11853, "kate": 5736, "physical": 3558, "nocturnal": 23789, "[unused525]": 530, "scoffed": 26326, "##oj": 29147, "##lone": 27165, "disgusting": 19424, "13": 2410, "tricked": 24929, "boiling": 16018, "frenchman": 26529, "stephanie": 11496, "tide": 10401, "macau": 16878, "combinations": 14930, "mammals": 11993, "##lights": 15733, "graduates": 10845, "lurking": 24261, "published": 2405, "apparently": 4593, "distraught": 25348, "16th": 5767, "roy": 6060, "ham": 10654, "cosmetics": 25381, "[unused708]": 713, "##\u0645": 22192, "prohibits": 25822, "yamamoto": 28318, "recalled": 7383, "logs": 15664, "console": 10122, "##nged": 21558, "##relli": 22948, "enrolled": 8302, "##3": 2509, "chaos": 8488, "leipzig": 11222, "##13": 17134, "##lana": 16695, "##gie": 11239, "knicks": 27817, "containing": 4820, "ms": 5796, "provence": 19923, "educator": 11490, "prolonged": 15330, "\u2116": 1578, "##ciful": 26336, "transformations": 21865, "willard": 19138, "mclean": 17602, "suspense": 23873, "[unused408]": 413, "hedge": 17834, "locate": 12453, "anybody": 10334, "caution": 14046, "outlined": 14801, "speed": 3177, "representation": 6630, "sainte": 16947, "qu": 24209, "hall": 2534, "\u092f": 1332, "well": 2092, "finley": 29194, "##boro": 12691, "oath": 11292, "swirling": 16499, "accounted": 14729, "[unused402]": 407, "duly": 25073, "\u044e": 1209, "seam": 25180, "overcome": 9462, "accountants": 29114, "sniffing": 27646, "devastating": 14886, "\u0996": 1354, "dl": 21469, "tingle": 25792, "##dion": 29573, "##\u9577": 30493, "combustion": 16513, "invariably": 26597, "respiratory": 16464, "##odon": 28716, "1931": 4739, "activate": 20544, "transitions": 22166, "samuel": 5212, "filtering": 22910, "loading": 10578, "kendra": 13812, "slipped": 5707, "##im": 5714, "[unused873]": 878, "obligation": 14987, "[unused497]": 502, "stills": 26105, "##eit": 20175, "##nated": 23854, "decay": 13121, "gilded": 23880, "chatting": 22331, "proteins": 8171, "crate": 27297, "governors": 11141, "duties": 5704, "crude": 13587, "rudd": 25298, "\u093e": 1340, "##mbre": 19908, "##holz": 28094, "normal": 3671, "roberta": 23455, "##therapy": 20900, "southampton": 11833, "coco": 25033, "##kley": 22315, "airs": 14369, "##hard": 11783, "swamp": 11963, "sore": 14699, "advertised": 17099, "semifinals": 8565, "highlighted": 11548, "mcgill": 17919, "carol": 8594, "widen": 21255, "hernandez": 13688, "piedmont": 18873, "##olate": 19425, "considerations": 16852, "intermittent": 23852, "freeing": 22198, "thou": 15223, "##itating": 16518, "ri": 15544, "coconut": 16027, "\u2208": 1596, "##uder": 29190, "genome": 13458, "pe": 21877, "[unused258]": 263, "unfamiliar": 16261, "numerous": 3365, "clube": 24852, "pulp": 16016, "##case": 18382, "priority": 9470, "projective": 27473, "moral": 7191, "raining": 24057, "writhing": 26185, "advisors": 18934, "jc": 29175, "motown": 22654, "[unused649]": 654, "clones": 24418, "inquired": 24849, "contracted": 11016, "hotels": 9275, "roach": 20997, "##rich": 13149, "swiftly": 12128, "bladder": 24176, "are": 2024, "spirituality": 21244, "\u304d": 1652, "24th": 13386, "##iso": 19565, "kay": 10905, "advanced": 3935, "neal": 11030, "suffering": 6114, "grande": 9026, "vhf": 27527, "employee": 7904, "micro": 12702, "churchyard": 19812, "oral": 8700, "carpenter": 10533, "crash": 5823, "refurbished": 18662, "constructive": 26157, "pointless": 23100, "hanoi": 24809, "##para": 28689, "mann": 10856, "##tters": 24168, "binary": 12441, "partially": 6822, "pradesh": 7970, "burial": 8940, "##\u9580": 30494, "catalogue": 10161, "dipping": 23427, "##ocytes": 28788, "outraged": 23558, "##yce": 29297, "keynote": 25569, "pioneers": 13200, "##hesive": 21579, "norwich": 12634, "1890s": 13678, "smuggling": 19535, "palms": 9486, "##yla": 23943, "##nburg": 22642, "talmud": 24380, "##led": 3709, "phenomenon": 9575, "released": 2207, "ying": 20879, "opposed": 4941, "bhutan": 18768, "dane": 14569, "provoked": 19157, "lenin": 17497, "yesterday": 7483, "assumption": 11213, "##ddled": 28090, "disney": 6373, "rewarded": 14610, "satirical": 17251, "425": 23285, "visibility": 16476, "##tem": 18532, "##mos": 15530, "crap": 10231, "pavel": 18635, "sikhs": 26697, "canon": 9330, "##rmed": 29540, "##\u3072": 30199, "[unused239]": 244, "assessment": 7667, "myles": 27056, "telangana": 23764, "##ull": 18083, "limit": 5787, "1902": 5774, "subsequently": 3525, "1800": 9807, "rica": 11509, "vicki": 25424, "##ding": 4667, "deter": 28283, "sapphire": 21965, "colin": 6972, "golden": 3585, "##pad": 15455, "history": 2381, "derived": 5173, "escaped": 6376, "regal": 21279, "humanity": 8438, "##rued": 28551, "fixing": 15887, "[unused922]": 927, "##slin": 22908, "eurovision": 12714, "federation": 4657, "statues": 11342, "seafood": 23621, "##ander": 12243, "[unused63]": 64, "jiang": 20613, "escape": 4019, "cannes": 14775, "fades": 26784, "rats": 11432, "mortally": 26495, "steamboat": 24897, "##x": 2595, "ammunition": 9290, "[unused539]": 544, "blindly": 25734, "dar": 18243, "gallons": 18501, "dye": 18554, "headwaters": 25345, "addict": 26855, "males": 3767, "zoe": 11199, "1944": 3646, "barges": 27712, "##\u03b7\u03c2": 29155, "palazzo": 18482, "gods": 5932, "receptors": 13833, "team": 2136, "dull": 10634, "laughs": 11680, "celtic": 8730, "1833": 11040, "incarnation": 15715, "leaking": 24325, "rifle": 5883, "##tance": 26897, "bald": 13852, "graduating": 6800, "folding": 12745, "duplicate": 24473, "ripe": 22503, "##\u9762": 30502, "turkmenistan": 25432, "dormitory": 21538, "bloom": 13426, "die": 3280, "dates": 5246, "##chman": 19944, "\u2229": 1604, "##cana": 28621, "##breaker": 21204, "jack": 2990, "mayo": 14415, "##ounded": 26240, "cromwell": 16759, "saga": 12312, "reconcile": 21063, "[unused125]": 130, "put": 2404, "bike": 7997, "bankers": 25375, "qualification": 8263, "modular": 19160, "[unused307]": 312, "##bula": 28507, "elimination": 9614, "hatfield": 26853, "##inas": 15227, "bench": 6847, "##ance": 6651, "martini": 24480, "opposes": 29158, "completing": 7678, "##ahu": 21463, "##khan": 26370, "##xide": 19491, "band": 2316, "\u85e4": 1944, "##oulos": 28262, "winds": 7266, "##ique": 7413, "doubts": 13579, "##ude": 12672, "cage": 7980, "##cht": 10143, "##phs": 18757, "kamal": 21911, "raion": 24235, "friendships": 28956, "consecutive": 5486, "reeves": 17891, "refuge": 9277, "barlow": 17803, "palestinians": 21524, "cadet": 12738, "pri": 26927, "##carriage": 21539, "\u6cbb": 1900, "[unused536]": 541, "airports": 13586, "enoch": 28178, "market": 3006, "##inus": 13429, "drury": 25663, "##zhi": 19436, "lacking": 11158, "laid": 4201, "1961": 3777, "motionless": 19917, "88": 6070, "dragoons": 28069, "cobra": 16604, "contributor": 12130, "vivian": 13801, "throwing": 6886, "dharma": 20669, "displayed": 6913, "enclosure": 17539, "[unused811]": 816, "lina": 27022, "##rgo": 18581, "##oslav": 23085, "##rita": 17728, "[unused425]": 430, "preserves": 18536, "inability": 13720, "79": 6535, "street": 2395, "##gration": 29397, "origin": 4761, "##nius": 20447, "ren": 14916, "scheduling": 19940, "jakob": 19108, "##hai": 10932, "tremble": 20627, "##\u30d5": 30246, "comprised": 11539, "logging": 15899, "##shot": 19040, "youngest": 6587, "bared": 23485, "copeland": 27303, "[unused542]": 547, "ars": 29393, "marks": 6017, "portugal": 5978, "retrieved": 5140, "1689": 22685, "##etto": 20082, "[unused231]": 236, "valiant": 24329, "maverick": 27187, "##dav": 29045, "##eman": 16704, "\u20a9": 1573, "primal": 22289, "\u00a35": 27813, "approve": 14300, "undergoes": 29129, "crew": 3626, "corrected": 13371, "occurred": 4158, "pen": 7279, "ping": 17852, "##ina": 3981, "distinctions": 25995, "bleeding": 9524, "##hra": 13492, "employ": 12666, "attache": 29489, "tremendous": 14388, "disclose": 26056, "where": 2073, "merge": 13590, "julien": 19290, "circles": 7925, "promenade": 26815, "tried": 2699, "[unused168]": 173, "ravens": 17272, "42": 4413, "stood": 2768, "chain": 4677, "##inda": 23938, "coop": 21859, "[unused861]": 866, "famous": 3297, "mellon": 22181, "slots": 19832, "voltage": 10004, "werewolf": 12797, "assignment": 8775, "##uating": 24133, "declining": 13993, "\u1d2e": 1491, "performs": 10438, "windmill": 25367, "##\u203a": 30068, "##kala": 26907, "arbitrary": 15275, "confiscated": 17182, "citizenship": 9068, "artist": 3063, "en": 4372, "werner": 14121, "reassured": 26350, "km": 2463, "lithium": 22157, "##athlon": 17563, "##eland": 25689, "##49": 26224, "forewings": 13211, "adored": 28456, "smashed": 14368, "electricity": 6451, "capable": 5214, "suarez": 22551, "isabelle": 13942, "masters": 5972, "mill": 4971, "1920": 4444, "grinned": 6973, "chihuahua": 28480, "liberated": 19553, "\u09ac": 1368, "mayor": 3664, "teller": 21322, "them": 2068, "##lter": 21928, "centers": 6401, "moments": 5312, "puppet": 13997, "##ste": 13473, "##orn": 9691, "destructive": 15615, "##2": 2475, "kyrgyzstan": 23209, "privacy": 9394, "computational": 15078, "leaped": 16900, "rained": 28270, "threatening": 8701, "##\u30c1": 30236, "clara": 10254, "distracted": 11116, "banquet": 19032, "hare": 14263, "decline": 6689, "kitten": 18401, "peterborough": 17587, "##uration": 18924, "filthy": 18294, "returning": 4192, "[unused207]": 212, "wes": 14008, "lure": 17256, "stretching": 10917, "discarded": 15105, "[unused202]": 207, "ian": 4775, "paler": 24489, "##ia": 2401, "stair": 23788, "##\u307b": 30202, "##has": 14949, "faint": 8143, "html": 16129, "jaguars": 24017, "rancho": 18123, "##script": 22483, "\u3075": 1674, "tangent": 27250, "erase": 22505, "injustice": 21321, "eruptions": 28448, "mice": 12328, "parliament": 3323, "vocabulary": 16188, "beginning": 2927, "##df": 20952, "taps": 25316, "protestant": 8330, "garnered": 13056, "flee": 10574, "closed": 2701, "hartford": 13381, "quadrant": 29371, "racks": 27259, "soared": 29127, "pixels": 27725, "becky": 14407, "lace": 12922, "constituents": 24355, "##\u5f18": 30369, "##rup": 21531, "pool": 4770, "donate": 21357, "hereford": 21136, "dwarves": 29281, "##dran": 24914, "tajikistan": 23538, "worker": 7309, "burst": 6532, "##nary": 24041, "burnham": 25295, "solidarity": 14657, "buffalo": 6901, "closing": 5494, "##\u2090": 30089, "commentaries": 21241, "liberia": 18039, "countryside": 10833, "authorship": 26324, "charities": 15430, "\u30b3": 1704, "pune": 16920, "stamp": 11359, "winced": 15574, "anniversary": 5315, "classes": 4280, "healy": 25706, "literal": 18204, "sud": 19219, "1873": 7612, "two": 2048, "convinces": 19480, "hail": 16889, "settings": 10906, "abnormalities": 28828, "greenwich": 13861, "dhaka": 16479, "invoked": 24959, "messengers": 28938, "installation": 8272, "tides": 22487, "\u0449": 1204, "bone": 5923, "pretending": 12097, "summit": 6465, "##ayan": 25868, "##tail": 14162, "##jer": 20009, "answer": 3437, "appeal": 5574, "partition": 13571, "scholars": 5784, "glided": 26936, "plata": 19534, "##ien": 9013, "##like": 10359, "montpellier": 28153, "recommendations": 11433, "##\u0261": 29682, "flavor": 14894, "\u308a": 1686, "ecclesiastical": 12301, "[unused3]": 4, "bb": 22861, "demonstrate": 10580, "adultery": 29169, "connolly": 21018, "51": 4868, "threaded": 26583, "gulp": 26546, "stirred": 13551, "saunders": 15247, "##don": 5280, "composers": 9929, "wehrmacht": 23443, "1942": 3758, "wrapping": 12252, "beverley": 29057, "##\u0dbd": 29942, "shaken": 16697, "\u0627": 1270, "garage": 7381, "confidently": 28415, "emptiness": 23397, "investigate": 8556, "takahashi": 25585, "##stick": 21354, "##zcz": 29419, "##\u0f60": 29969, "adjutant": 20690, "##\u0915": 29851, "[unused638]": 643, "attacker": 17346, "##olo": 12898, "##dder": 20791, "blinking": 15997, "spear": 12341, "violation": 11371, "dies": 8289, "##\u0441": 29747, "discouraged": 22585, "modernization": 20181, "aroused": 18391, "thug": 26599, "##400": 29537, "immortals": 26796, "##\u0bbe": 29931, "\u306c": 1669, "jiangsu": 28091, "australian": 2827, "blazing": 17162, "extended": 3668, "stock": 4518, "universal": 5415, "\u5f73": 1845, "hairs": 13606, "stacks": 20829, "wilbur": 26151, "seattle": 5862, "receiving": 4909, "412": 25873, "##wire": 20357, "ordinary": 6623, "foreword": 23059, "parental": 18643, "abandoned": 4704, "##tight": 26143, "1948": 3882, "toll": 9565, "kathleen": 14559, "originating": 14802, "unwilling": 15175, "\u0645": 1295, "[unused204]": 209, "##kit": 23615, "review": 3319, "palmer": 8809, "judge": 3648, "perennial": 14638, "inn": 7601, "insist": 18292, "\u00ab": 1077, "##anal": 27953, "shelters": 17177, "mart": 20481, "##vin": 6371, "fortunate": 19590, "hang": 6865, "customer": 8013, "loretta": 28493, "##vere": 28943, "lombard": 23441, "careful": 6176, "menacing": 24060, "##phonic": 27385, "recipients": 15991, "##ved": 7178, "##ostal": 29381, "nikola": 24794, "stimuli": 22239, "hastily": 15789, "language": 2653, "smacked": 19203, "drills": 28308, "[unused809]": 814, "435": 24125, "pollock": 25218, "##ole": 9890, "roster": 9238, "angry": 4854, "harmonic": 19452, "##\u3051": 30180, "favorable": 11119, "[unused256]": 261, "##nery": 27415, "rosewood": 29528, "hopeless": 20625, "tatar": 29241, "boyer": 23456, "##dington": 21504, "bianca": 18051, "genre": 6907, "pedestal": 24496, "##ts": 3215, "leave": 2681, "merchant": 6432, "terrible": 6659, "1721": 27689, "separate": 3584, "##\u0280": 29693, "heart": 2540, "start": 2707, "de": 2139, "positioning": 19120, "romantic": 6298, "##zio": 12426, "##tad": 17713, "situations": 8146, "flavour": 28126, "aziz": 21196, "##:": 29627, "##ously": 13453, "##\u099f": 29895, "intersections": 26540, "bump": 16906, "shortstop": 25359, "omaha": 12864, "merchandise": 16359, "##zation": 9276, "nitrate": 29607, "##aco": 22684, "buddhist": 7992, "1863": 6899, "##\u0637": 29828, "boasted": 23390, "[unused523]": 528, "community": 2451, "entrances": 18084, "governments": 6867, "\u05de": 1255, "##tta": 5946, "existed": 5839, "gustav": 13430, "pyramid": 11918, "atlantis": 16637, "antarctic": 10227, "crouch": 21676, "circus": 9661, "stan": 9761, "rated": 6758, "\u028b": 1133, "nouveau": 25272, "linguistic": 12158, "[unused422]": 427, "##\u571f": 30327, "potential": 4022, "deceased": 10181, "periodically": 18043, "\u0bc8": 1399, "##pa": 4502, "digging": 10443, "##mite": 23419, "moaning": 22653, "r": 1054, "ensembles": 21528, "distinguishes": 27343, "\u203f": 1534, "erased": 23516, "prince": 3159, "artery": 16749, "niece": 12286, "cardiovascular": 22935, "\u02e2": 1152, "harmony": 9396, "119": 13285, "poets": 9736, "ingredient": 21774, "##nable": 22966, "##ir": 4313, "##truct": 18300, "[unused314]": 319, "pavement": 14271, "scooted": 24289, "reacting": 24868, "disappearing": 14489, "##haus": 13821, "displays": 8834, "influential": 6383, "manners": 14632, "##cco": 21408, "##cor": 27108, "climbed": 6589, "a": 1037, "noted": 3264, "retailer": 20196, "aiding": 24791, "blow": 6271, "recession": 19396, "seated": 8901, "stalker": 23883, "biological": 6897, "bowen": 16208, "compete": 5566, "[unused917]": 922, "alley": 8975, "disqualification": 27782, "api": 17928, "##fully": 7699, "armory": 24139, "demolition": 12451, "southland": 29121, "globally": 16452, "##ault": 23505, "126": 14010, "##zz": 13213, "begged": 12999, "forerunner": 23993, "##layer": 24314, "contiguous": 25177, "publication": 4772, "70": 3963, "chefs": 27828, "god": 2643, "solving": 13729, "badminton": 14618, "42nd": 21373, "##terol": 27833, "ending": 4566, "spacecraft": 12076, "##tious": 20771, "malacca": 28481, "##\u9f8d": 30508, "conventions": 12472, "moran": 17866, "1947": 4006, "cost": 3465, "hammering": 27883, "##\u30eb": 30259, "deeds": 15616, "trance": 16588, "dairy": 11825, "[unused134]": 139, "stolen": 7376, "##\u25a0": 30144, "loads": 15665, "clutches": 29497, "[unused313]": 318, "babylon": 17690, "louie": 17438, "1922": 4798, "taiwan": 6629, "attic": 14832, "##\u6211": 30381, "personnel": 5073, "##made": 21565, "##sight": 25807, "403": 28203, "sixties": 22651, "seconds": 3823, "agreed": 3530, "tee": 17170, "differs": 12980, "##au": 4887, "attributes": 12332, "decent": 11519, "##est": 4355, "##nt": 3372, "nose": 4451, "##_": 29638, "planck": 26486, "resistant": 13070, "jamaica": 9156, "184": 19681, "belarus": 12545, "cousins": 12334, "marta": 18950, "affairs": 3821, "kennedy": 5817, "\u6c37": 1895, "##rip": 29443, "checking": 9361, "##runa": 26605, "irish": 3493, "legged": 15817, "tehsil": 20751, "##55": 24087, "resurrection": 15218, "interacting": 21935, "mysteries": 15572, "greasy": 26484, "resumed": 7943, "guitarist": 5990, "slapped": 11159, "whole": 2878, "[unused512]": 517, "mortimer": 17416, "broke": 3631, "##cos": 13186, "murdering": 21054, "trainer": 10365, "mickey": 11021, "phylogenetic": 23192, "\u110c": 1464, "[unused625]": 630, "##44": 22932, "unconstitutional": 20454, "prior": 3188, "edition": 3179, "tick": 16356, "bonded": 20886, "furious": 9943, "roots": 6147, "circled": 14867, "gateway": 11909, "troupe": 16017, "attack": 2886, "050": 28714, "beaming": 27910, "\u0570": 1228, "##la": 2721, "[unused594]": 599, "arousal": 18905, "dion": 19542, "##rix": 17682, "surged": 18852, "licked": 11181, "lips": 2970, "imports": 17589, "particle": 10811, "##chus": 16194, "technique": 6028, "brien": 9848, "##lish": 13602, "1996": 2727, "ticket": 7281, "##bes": 12681, "padua": 24941, "##iji": 27821, "convenient": 14057, "flynn": 13259, "hardship": 26479, "investigations": 9751, "welcomed": 10979, "##lace": 19217, "##weig": 27204, "gregg": 18281, "gunnery": 27919, "mediterranean": 7095, "##gp": 21600, "fit": 4906, "catalina": 22326, "detached": 12230, "futures": 17795, "regression": 26237, "555": 29541, "buzz": 12610, "jumper": 21097, "mandarin": 15831, "gripped": 9672, "mick": 10872, "monsieur": 21380, "transportation": 5193, "dolphins": 13600, "##pper": 18620, "abduction": 23415, "warfare": 8309, "abdominal": 21419, "##\u201e": 30060, "buckingham": 17836, "##\u5409": 30319, "##istles": 28738, "setup": 16437, "combined": 4117, "mckenna": 21749, "##lby": 14510, "##oy": 6977, "queen": 3035, "[unused194]": 199, "[unused249]": 254, "[unused177]": 182, "occupations": 23374, "become": 2468, "shrimp": 20130, "sixteen": 7032, "casimir": 24701, "liking": 16663, "##hos": 15006, "brazil": 4380, "azores": 28320, "competition": 2971, "lp": 6948, "faculty": 4513, "pussy": 22418, "townspeople": 27938, "2018": 2760, "##isi": 17417, "seasons": 3692, "amusement": 9778, "abbreviation": 22498, "##geny": 17487, "abducted": 20361, "chunk": 20000, "shaking": 5513, "[unused276]": 281, "pockets": 10306, "rampage": 29216, "##bee": 11306, "geological": 9843, "benfica": 26542, "##bies": 20536, "diplomats": 23473, "tack": 26997, "law": 2375, "board": 2604, "beat": 3786, "ezra": 16245, "##{": 29640, "draught": 25349, "figuring": 23218, "beatty": 27305, "kb": 21677, "1969": 3440, "lola": 15137, "grasses": 21620, "reporter": 6398, "[unused788]": 793, "pontiac": 24538, "author": 3166, "##ence": 10127, "ankara": 20312, "muslim": 5152, "scientology": 23845, "petitions": 24320, "taxon": 28521, "usual": 5156, "detrimental": 29172, "committees": 9528, "peppers": 23582, "malcolm": 8861, "sabha": 11200, "\u03bf": 1169, "##tries": 21011, "ajax": 18176, "deserves": 17210, "obe": 15578, "##aceae": 18339, "dad": 3611, "##ded": 5732, "intensified": 15767, "covered": 3139, "ask": 3198, "contradiction": 26917, "whereabouts": 18913, "[unused92]": 93, "believer": 24591, "ornamental": 18200, "past": 2627, "1997": 2722, "decades": 5109, "##\u0f44": 29963, "##erved": 25944, "humour": 17211, "##\u2ea9": 30158, "inc": 4297, "easter": 10957, "toy": 9121, "sash": 24511, "mba": 15038, "##wheel": 22920, "##gano": 29451, "logged": 26618, "\u1d57": 1505, "urdu": 12454, "odin": 26195, "##\u2609": 30149, "##lated": 13776, "##\u0447": 29752, "fey": 23864, "1658": 28944, "loco": 28046, "1970s": 3955, "##chen": 8661, "bursts": 19239, "inferior": 14092, "jewellery": 21545, "syracuse": 11736, "##phate": 24556, "##\u6c35": 30420, "witchcraft": 21599, "feed": 5438, "ways": 3971, "room": 2282, "mannheim": 25116, "##\u10e2": 29989, "configurations": 22354, "skirts": 18184, "stains": 27094, "eugen": 29273, "oakland": 9182, "##sius": 24721, "katrina": 16864, "hydroelectric": 18541, "disbanded": 8532, "upbringing": 24615, "pantheon": 24152, "continuum": 22961, "briefing": 27918, "glamour": 22439, "fee": 7408, "idol": 10282, "##\u0643": 29835, "unfair": 15571, "##room": 9954, "receptor": 10769, "radcliffe": 22603, "capturing": 11847, "##burn": 8022, "silk": 6953, "constance": 15713, "luminous": 25567, "bellamy": 25544, "luis": 6446, "orbit": 8753, "peggy": 14911, "shelter": 7713, "sleek": 21185, "##agawa": 20812, "##hawks": 16043, "caroline": 7981, "spot": 3962, "apes": 27754, "##hand": 11774, "chairperson": 19072, "helena": 10269, "nascar": 11838, "alta": 23647, "rip": 10973, "cleaner": 20133, "stays": 12237, "pasta": 24857, "inspect": 22459, "[unused394]": 399, "b": 1038, "wake": 5256, "##held": 24850, "recycled": 22207, "##\u56fd": 30325, "desire": 4792, "##urity": 25137, "cynical": 26881, "tragedy": 10576, "embryo": 28086, "medal": 3101, "huddersfield": 19715, "aluminium": 14794, "hailey": 21664, "\u308c": 1688, "excuse": 8016, "fbi": 8495, "goldstein": 25507, "manchester": 5087, "stained": 9702, "negotiations": 7776, "cringed": 23952, "guise": 21980, "uniquely": 20640, "##blood": 26682, "[unused950]": 955, "##gged": 15567, "bates": 11205, "elisa": 29490, "jobs": 5841, "##nu": 11231, "##\u2228": 30130, ":": 1024, "hepatitis": 28389, "australians": 15739, "ames": 19900, "##atable": 27892, "derelict": 28839, "divine": 7746, "##psis": 18409, "adding": 5815, "tomb": 8136, "\u2016": 1519, "baffled": 29088, "catalog": 12105, "[unused507]": 512, "\u10da": 1447, "sublime": 28341, "cremated": 28376, "valet": 27238, "reaching": 4285, "##ija": 14713, "franks": 21310, "##ament": 24996, "##tenberg": 21806, "ghetto": 17276, "158": 17696, "##riam": 25557, "680": 23944, "raf": 7148, "[unused475]": 480, "gazette": 11391, "guerrilla": 15722, "ion": 10163, "rainfall": 10101, "##ux": 5602, "\u8c9d": 1952, "##ssing": 18965, "skirmish": 27264, "routing": 16972, "##ated": 4383, "continuing": 5719, "lou": 10223, "porn": 22555, "savanna": 22323, "balloon": 13212, "##\u027e": 29692, "mobility": 12969, "ann": 5754, "##\u03c0": 29731, "carlos": 5828, "##nded": 25848, "goddamn": 16477, "paces": 24785, "duty": 4611, "invited": 4778, "geraldine": 26987, "##dication": 25027, "lad": 14804, "manly": 19385, "rescuing": 23659, "maddy": 20789, "sober": 17358, "##\u0bb2": 29928, "##lier": 14355, "##tub": 28251, "valentine": 10113, "maia": 23478, "reused": 26513, "horton": 18469, "##\u5e1d": 30364, "\u898b": 1948, "cents": 16653, "thyroid": 29610, "chart": 3673, "##owa": 21293, "mane": 23055, "gives": 3957, "rna": 12987, "##ife": 29323, "collided": 17745, "dev": 16475, "curled": 8188, "##rer": 14544, "antioch": 19078, "paperback": 13611, "wang": 7418, "reunite": 25372, "sectors": 11105, "##rano": 20770, "delivered": 5359, "disasters": 18665, "julian": 6426, "clip": 12528, "ranger": 11505, "625": 22810, "##rys": 24769, "organizers": 18829, "hangs": 17991, "##dro": 22196, "##\u3061": 30188, "irrigation": 12442, "doll": 10658, "protesters": 13337, "##\u0bc8": 29935, "clouds": 8044, "bn": 24869, "##vine": 20534, "##tom": 20389, "standard": 3115, "##\u2122": 30108, "pan": 6090, "\u00f7": 1099, "##orted": 15613, "sandra": 12834, "brute": 26128, "commonwealth": 5663, "gran": 12604, "miranda": 9392, "schizophrenia": 23683, "##horn": 9769, "disrupt": 23217, "##io": 3695, "##du": 8566, "eighties": 27690, "rebirth": 22785, "##genesis": 23737, "##sing": 7741, "yeast": 21957, "even": 2130, "newman": 10625, "spokesman": 14056, "holy": 4151, "grazing": 15400, "##chu": 20760, "sofa": 10682, "##.": 29625, "supervising": 21238, "eyed": 7168, "overnight": 11585, "cavendish": 23570, "##tension": 29048, "##\u099a": 29892, "##aceous": 25560, "garments": 21902, "##lly": 9215, "humanities": 11406, "mastery": 26364, "tourist": 7538, "minions": 28071, "assemble": 21365, "your": 2115, "620": 23612, "owning": 19273, "passengers": 5467, "##aries": 12086, "melissa": 9606, "architect": 4944, "sabre": 22002, "##\u66f2": 30396, "ruth": 7920, "##tagram": 23091, "superhero": 16251, "ballast": 28030, "obsessed": 15896, "realizes": 10919, "[unused121]": 126, "coordinates": 12093, "fragmented": 26872, "##nah": 15272, "##raphy": 26228, "adherents": 25712, "##rdes": 26371, "nevada": 7756, "pub": 9047, "##47": 22610, "##\u044c": 23742, "packing": 14743, "whitehall": 28361, "halted": 12705, "shawn": 13218, "saturdays": 18860, "\u03b1": 1155, ">": 1028, "emphasize": 17902, "internacional": 27607, "##ldon": 19932, "decker": 20946, "[unused308]": 313, "immune": 11311, "applicable": 12711, "ud": 20904, "##bing": 10472, "sucker": 26476, "genealogical": 29606, "##nya": 17238, "##stown": 13731, "boone": 15033, "strain": 10178, "##g": 2290, "holland": 7935, "randolph": 13031, "talon": 19048, "vicinity": 9884, "\u05df": 1256, "grimly": 22561, "530": 23523, "prisons": 15996, "mirrors": 13536, "propellers": 23405, "incline": 27461, "flap": 20916, "##neo": 23585, "[unused927]": 932, "known": 2124, "nano": 28991, "newfound": 27608, "fortification": 23050, "[unused467]": 472, "##real": 22852, "fold": 10671, "humanitarian": 11470, "magazines": 7298, "preoccupied": 23962, "originate": 21754, "ser": 14262, "dancing": 5613, "baggage": 20220, "hoop": 27669, "denial": 14920, "junctions": 27169, "sorority": 27600, "trolley": 20820, "template": 23561, "suspicions": 17817, "org": 8917, "337": 28489, "##8": 2620, "##tow": 18790, "1663": 29016, "[unused652]": 657, "[unused860]": 865, "ap": 9706, "capcom": 26861, "ding": 22033, "rutland": 27780, "vegetarian": 23566, "alloy": 17564, "[unused898]": 903, "nanny": 19174, "quantitative": 20155, "\u0e2d": 1421, "alterations": 16705, "mayhem": 26865, "sandwiches": 22094, "chord": 13924, "transcription": 14193, "denounced": 17787, "\u0d9a": 1403, "display": 4653, "begins": 4269, "seo": 27457, "foreigner": 29524, "mahmoud": 27278, "##sh": 4095, "fascism": 23779, "hunting": 5933, "grill": 18651, "leonardo": 14720, "##85": 27531, "##tics": 14606, "\u207f": 1546, "fuzzy": 18001, "48": 4466, "##gman": 25494, "##end": 10497, "oaxaca": 26923, "persona": 16115, "trois": 25527, "\u044d": 1208, "burton": 9658, "[unused959]": 964, "##rch": 11140, "heavily": 4600, "\u30e7": 1730, "[unused270]": 275, "##ytic": 21252, "[unused392]": 397, "##aldo": 27318, "breakaway": 26321, "radiating": 23229, "dashed": 18198, "shovel": 24596, "components": 6177, "##ium": 5007, "swayed": 20122, "##bi": 5638, "##fer": 7512, "recommends": 26021, "pius": 14363, "rouen": 27030, "command": 3094, "##ke": 3489, "these": 2122, "brooke": 11535, "immaculate": 19532, "techniques": 5461, "within": 2306, "vary": 8137, "tuba": 29242, "1655": 28438, "sweeney": 21178, "guam": 16162, "375": 18034, "photographed": 16164, "walsall": 29054, "access": 3229, "##rg": 10623, "9th": 6280, "aspect": 7814, "parochial": 28773, "guest": 4113, "##tonic": 25009, "neighbouring": 9632, "pretty": 3492, "groups": 2967, "\u0940": 1342, "##rza": 24175, "##vity": 24872, "174": 19492, "convictions": 20488, "mtv": 8692, "analyzing": 20253, "##\u3075": 30200, "##\u09aa": 29903, "breeders": 20823, "filling": 8110, "[unused150]": 155, "antilles": 27695, "behavior": 5248, "yerevan": 23383, "187": 19446, "broncos": 14169, "howard": 4922, "##oes": 22504, "##erus": 21608, "##gol": 24141, "\u9fb8": 1983, "poles": 10567, "peshawar": 28777, "printing": 8021, "sworn": 10741, "currents": 14731, "##mori": 24610, "##db": 18939, "weak": 5410, "commercials": 12698, "cunning": 23626, "[unused871]": 876, "paints": 23262, "carlton": 12989, "suggesting": 9104, "muzzle": 17750, "pak": 22190, "tobago": 17247, "reinforcement": 23895, "##region": 23784, "evenly": 18030, "premise": 18458, "vacancy": 15619, "goldsmith": 22389, "momentarily": 16032, "\u05d1": 1242, "tenth": 7891, "113": 12104, "jingle": 29262, "reside": 13960, "##liga": 14715, "##ki": 3211, "##rrow": 28597, "certified": 7378, "hostage": 13446, "kc": 21117, "\u2217": 1598, "faults": 19399, "[unused710]": 715, "parlor": 18746, "\u9762": 1976, "projecting": 18398, "aesthetics": 20749, "parenting": 28586, "\u201d": 1524, "acquainted": 19056, "hazard": 15559, "mysore": 20761, "equally": 8053, "512": 24406, "hahn": 24266, "investing": 19920, "notable": 3862, "alam": 26234, "\u0292": 1138, "iraq": 5712, "wagon": 9540, "##ily": 6588, "gabby": 27183, "duc": 26363, "countdown": 18144, "enduring": 16762, "##vocation": 19152, "brigadier": 9900, "fatima": 27596, "leaf": 7053, "perfectly": 6669, "vast": 6565, "risk": 3891, "maui": 28566, "greed": 22040, "accommodate": 8752, "\u99ac": 1980, "fairfax": 17833, "sizable": 25908, "##pps": 28281, "bihar": 16178, "##cona": 24366, "\u5d0e": 1834, "paraguay": 13884, "1675": 27194, "encore": 19493, "\u116f": 1479, "enemy": 4099, "wrought": 18481, "ranks": 6938, "lair": 21039, "accessibility": 23661, "clemens": 27277, "goose": 13020, "pressured": 25227, "space": 2686, "##eson": 21421, "raised": 2992, "hickory": 28158, "funding": 4804, "##basket": 25351, "similar": 2714, "1600": 14883, "jays": 18930, "otherwise": 4728, "retained": 6025, "##it": 4183, "seeing": 3773, "##lian": 15204, "##mart": 22345, "taking": 2635, "demonstration": 10467, "##rol": 13153, "campo": 22339, "runs": 3216, "##bic": 13592, "coveted": 28821, "lamps": 14186, "nathan": 7150, "latino": 7402, "specifies": 27171, "picks": 11214, "athlete": 8258, "learned": 4342, "documentaries": 15693, "##zong": 13150, "adobe": 18106, "featured": 2956, "towers": 7626, "reunited": 11653, "curb": 13730, "##\u6ca2": 30424, "bumps": 18548, "prized": 25695, "##fting": 26169, "[unused954]": 959, "boer": 19945, "coincidentally": 27542, "bolt": 10053, "##nted": 14706, "[unused328]": 333, "subgroup": 20576, "pitch": 6510, "##t": 2102, "utopia": 26425, "memorials": 22899, "pau": 29025, "cemetery": 4528, "bela": 20252, "nur": 27617, "vargas": 20556, "antennas": 26315, "depicting": 10775, "lambert": 12838, "ominous": 23504, "reductions": 25006, "rq": 28134, "marcus": 6647, "laboratory": 5911, "baja": 19497, "flinders": 29120, "abuses": 21078, "grimes": 24865, "##\u1019": 29973, "sits": 7719, "1828": 11517, "thereof": 21739, "duffy": 17971, "currency": 9598, "##ott": 14517, "damage": 4053, "engraver": 27771, "pigeons": 27567, "sweep": 11740, "watch": 3422, "##\u10d5": 29979, "slated": 18517, "##len": 7770, "[unused830]": 835, "carnegie": 11298, "hillside": 18573, "patrice": 29527, "socket": 22278, "[unused951]": 956, "gaston": 18572, "choreographer": 17334, "culminating": 16979, "[unused791]": 796, "gown": 11739, "printed": 6267, "subdivision": 12572, "pony": 15606, "##xi": 9048, "47": 4700, "meyer": 11527, "ku": 13970, "kurdish": 15553, "1700": 16601, "##aurus": 17342, "##ego": 20265, "dread": 14436, "##ories": 18909, "christensen": 24189, "dockyard": 24874, "##lene": 11474, "##\u30e3": 30254, "argument": 6685, "lyrical": 16376, "1864": 6717, "humor": 8562, "\u0580": 1237, "alcoholism": 25519, "exhausted": 9069, "uniformed": 25189, "##erson": 18617, "##ings": 8613, "141": 15471, "suffered": 4265, "[unused726]": 731, "thrilling": 26162, "[unused817]": 822, "wasp": 19411, "clement": 12223, "\u094b": 1343, "##entes": 26933, "respectable": 19416, "ease": 7496, "except": 3272, "elevators": 19406, "corp": 13058, "[unused900]": 905, "qur": 23183, "compression": 13379, "blanket": 8768, "##\u0928": 29863, "creole": 21414, "##\u967d": 30499, "ashford": 26545, "fist": 7345, "receives": 8267, "iss": 26354, "interactive": 9123, "piccolo": 29368, "\u9673": 1972, "##\u0f63": 29971, "decrees": 28966, "##ehan": 24660, "merely": 6414, "gritted": 17307, "##27": 22907, "[unused113]": 118, "howell": 18473, "##oked": 23461, "baptist": 7550, "##ganj": 22738, "rabbi": 7907, "springsteen": 26002, "[unused824]": 829, "##\u0938": 29874, "##ution": 13700, "coma": 16571, "silva": 11183, "syrian": 9042, "wrinkled": 15968, "stairs": 5108, "bristol": 7067, "dots": 14981, "formula": 5675, "##wy": 18418, "tow": 15805, "touching": 7244, "##cultural": 29415, "hundreds": 5606, "miracle": 9727, "expo": 16258, "camilla": 26902, "completes": 28123, "##sie": 11741, "furlongs": 26602, "trivial": 20610, "fray": 25975, "cognitive": 10699, "##tick": 26348, "renal": 25125, "je": 15333, "scottish": 4104, "geologic": 22125, "##olt": 27914, "preceding": 11003, "##inking": 29377, "##rum": 6824, "2011": 2249, "lei": 26947, "##band": 12733, "bmg": 24499, "regulations": 7040, "training": 2731, "officer": 2961, "\u110f": 1466, "languages": 4155, "endemic": 7320, "##growth": 26982, "[unused663]": 668, "dukes": 16606, "sex": 3348, "orchestrated": 23339, "ironic": 19313, "amnesty": 16154, "##olved": 16116, "pow": 23776, "##\u09ae": 29906, "specializes": 16997, "##atter": 20097, "cf": 12935, "\u671d": 1874, "##isson": 24077, "chopra": 28826, "##tou": 24826, "[unused191]": 196, "crystals": 14438, "reliability": 15258, "focuses": 7679, "parameters": 11709, "##ees": 10285, "interfered": 28976, "miles": 2661, "##nder": 11563, "douglass": 27485, "##agger": 27609, "beaches": 12212, "##zuki": 24015, "giovanni": 9136, "onwards": 9921, "##giving": 23795, "rank": 4635, "novice": 23131, "tree": 3392, "greenwood": 16827, "examines": 20798, "##med": 7583, "technology": 2974, "guitars": 7334, "##yse": 23274, "payroll": 26854, "denver": 7573, "context": 6123, "##\u09a3": 29897, "horst": 28565, "screamed": 7210, "voivodeship": 7225, "##pired": 21649, "adrenaline": 14963, "bowler": 14999, "harrington": 19760, "mi": 2771, "[unused918]": 923, "gem": 17070, "illinois": 4307, "kitchen": 3829, "insurgents": 20541, "dayton": 14700, "##cd": 19797, "cue": 16091, "gaped": 23832, "needle": 12201, "savior": 24859, "bodied": 22549, "bwv": 23860, "##nidae": 29135, "care": 2729, "sentence": 6251, "\u0915": 1315, "lcd": 27662, "[unused399]": 404, "bolshevik": 24477, "disgust": 12721, "gabled": 26182, "mussolini": 22554, "suzanne": 15146, "theatres": 13166, "marlins": 27055, "corridor": 7120, "healing": 8907, "tracked": 12808, "##dra": 7265, "\u5b80": 1818, "##sha": 7377, "[unused692]": 697, "gunmen": 28932, "expenditures": 22697, "beans": 13435, "congratulations": 23156, "\u2194": 1587, "##ichi": 11319, "md": 9108, "son": 2365, "cuckoo": 29010, "original": 2434, "vacuum": 11641, "settlements": 7617, "ignored": 6439, "ibn": 7839, "stuffing": 28652, "chronicle": 9519, "sweets": 26844, "sorting": 22210, "##thy": 16921, "elmer": 21464, "remain": 3961, "shorts": 9132, "seriousness": 27994, "##er": 2121, "attract": 9958, "cuffs": 24347, "overgrown": 26433, "proportions": 19173, "travellers": 19284, "hammersmith": 28420, "risks": 10831, "birch": 16421, "goran": 28356, "composer": 4543, "##hall": 9892, "!": 999, "##\u0f53": 29965, "lock": 5843, "##ddling": 21814, "promotional": 10319, "mohammad": 12050, "##comb": 18274, "needles": 17044, "[unused406]": 411, "marquez": 27320, "nepal": 8222, "roosevelt": 8573, "fungi": 15289, "city": 2103, "dive": 11529, "urine": 17996, "daisy": 10409, "frustration": 9135, "wil": 19863, "##use": 8557, "gently": 5251, "##vable": 12423, "##nee": 24045, "andersson": 28643, "ki": 11382, "##guide": 28582, "spotting": 27963, "transverse": 18323, "adapted": 5967, "soundtracks": 24245, "denies": 23439, "says": 2758, "[unused771]": 776, "bell": 4330, "##sell": 23836, "biomedical": 20906, "houghton": 21234, "tempting": 23421, "punjab": 9213, "shore": 5370, "##\u1d56": 30040, "[unused206]": 211, "spawned": 18379, "penultimate": 25512, "kilograms": 18857, "vega": 15942, "tripoli": 21841, "deafening": 28840, "##jun": 19792, "springer": 17481, "lukas": 23739, "remastered": 19484, "conversely": 18868, "rhetoric": 17871, "troopers": 26246, "\uff01": 1986, "interval": 13483, "killings": 16431, "*": 1008, "153": 16710, "despair": 13905, "fossil": 10725, "1981": 3261, "##\u10d0": 29974, "nadu": 10703, "stairway": 21952, "tobin": 28096, "##\u3092": 30216, "ceo": 5766, "conducting": 9283, "\u0442": 1197, "holocaust": 11513, "vice": 3580, "jenkins": 11098, "##\u0578": 29779, "hagen": 24047, "kirk": 11332, "possessive": 22105, "upscale": 28276, "##ath": 8988, "damaged": 5591, "inland": 9514, "cracking": 15729, "correspondence": 11061, "yarmouth": 28792, "vow": 19076, "grunted": 14922, "##oint": 25785, "experts": 8519, "grease": 21956, "conner": 17639, "stab": 17079, "trout": 13452, "whale": 13156, "yates": 20356, "documentary": 4516, "flair": 22012, "decreased": 10548, "ipod": 26322, "##rted": 17724, "uber": 19169, "##gum": 22850, "##bain": 29148, "mythological": 21637, "polly": 17543, "unnecessary": 14203, "cn": 27166, "colors": 6087, "abyss": 22159, "\u611b": 1853, "nearing": 23454, "fore": 18921, "khalid": 21828, "scrap": 15121, "##\u5b89": 30346, "environment": 4044, "richmond": 6713, "bai": 21790, "dd": 20315, "##oons": 27174, "betray": 20895, "non": 2512, "##uez": 29488, "interest": 3037, "validation": 27354, "\u4e16": 1745, "[unused321]": 326, "freyja": 7075, "seminal": 20603, "chichester": 23406, "oliver": 6291, "##\u4e16": 30271, "peking": 27057, "[unused651]": 656, "conquest": 9187, "idols": 24438, "\u20b9": 1576, "##ago": 23692, "unhappy": 12511, "\u6cd5": 1901, "planner": 24555, "cantor": 26519, "670": 25535, "apart": 4237, "cayman": 26164, "##\u9593": 30495, "lucie": 28831, "\u1105": 1458, "suspiciously": 21501, "20s": 27074, "##\u5357": 30311, "\u30d2": 1719, "luz": 26214, "menu": 12183, "spaced": 19835, "synagogue": 13067, "potter": 10693, "##lice": 13231, "1766": 21410, "communicate": 10639, "highlights": 11637, "family": 2155, "##iary": 17302, "manhattan": 7128, "michelangelo": 27701, "aleppo": 22973, "##\u05df": 29802, "1870": 6940, "wider": 7289, "requested": 7303, "clubs": 4184, "hc": 16731, "45th": 24634, "hound": 19598, "formulation": 20219, "jung": 11810, "median": 3991, "distributions": 20611, "saving": 7494, "internationals": 27340, "gabe": 12900, "sweeping": 12720, "##ulating": 10924, "disciplined": 28675, "posthumous": 19086, "vulgar": 29364, "enforcing": 27455, "viking": 12886, "befriended": 23386, "resides": 11665, "clad": 13681, "predictions": 20932, "##ttes": 14581, "northernmost": 22037, "thailand": 6504, "1793": 12387, "\u30c4": 1712, "stellar": 17227, "titanium": 23431, "[unused0]": 1, "##aged": 18655, "occupants": 18837, "vowels": 15260, "##kka": 15714, "indians": 6505, "##iciencies": 28227, "##ulated": 8898, "jackets": 17764, "fenton": 27096, "leonid": 27316, "tariff": 23234, "##jet": 15759, "37": 4261, "trends": 12878, "uneven": 17837, "##\u1167": 30010, "[unused329]": 334, "accomplish": 14570, "underworld": 13607, "langdon": 15232, "enforcement": 7285, "pods": 26723, "skilled": 10571, "[unused742]": 747, "\u0e27": 1419, "modelling": 19518, "bu": 20934, "inherited": 7900, "congregation": 7769, "lavish": 22689, "##tadt": 18808, "honey": 6861, "stamford": 22469, "manifested": 24906, "serial": 7642, "parcel": 20463, "##lika": 25421, "proton": 20843, "queer": 19483, "woodland": 11051, "##tford": 26341, "butterflies": 15023, "cumbria": 25559, "\u307e": 1677, "guilty": 5905, "limits": 6537, "denton": 23906, "intersect": 29261, "brightest": 26849, "petals": 15829, "accompany": 12673, "ee": 25212, "squared": 19942, "variance": 23284, "eyeing": 19285, "merging": 16468, "leaflets": 27306, "##nde": 13629, "verlag": 14552, "testosterone": 25937, "top": 2327, "marquess": 17391, "bleed": 19501, "rematch": 18229, "evangelical": 11295, "rr": 25269, "93": 6109, "\u8ecd": 1955, "leafs": 21349, "jamie": 6175, "94": 6365, "pcs": 27019, "texans": 23246, "sima": 26769, "eat": 4521, "emission": 15760, "tallest": 13747, "\u4e94": 1753, "jihad": 24815, "##urai": 24804, "boon": 23264, "pixel": 22138, "converse": 23705, "##rand": 13033, "intersection": 6840, "encoded": 12359, "olympics": 3783, "patna": 29565, "357": 26231, "drama": 3689, "zenith": 28672, "##rine": 11467, "##ider": 18688, "syed": 19740, "1955": 3982, "guatemala": 11779, "##00": 8889, "ex": 4654, "[unused280]": 285, "eminent": 14953, "compositions": 9265, "castro": 11794, "morley": 20653, "##s\u0142aw": 23305, "yelling": 13175, "signaling": 14828, "lough": 29504, "waved": 7147, "alliance": 4707, "biting": 12344, "chronological": 23472, "paws": 24392, "blurted": 18751, "##rya": 20444, "graduated": 3852, "rudy": 18254, "prison": 3827, "turbines": 17396, "journalist": 4988, "cube": 14291, "diocese": 5801, "publishers": 8544, "##routed": 25849, "##xie": 16898, "##aint": 22325, "##ut": 4904, "dogg": 28844, "northampton": 15944, "birth": 4182, "prague": 8634, "[unused78]": 79, "claw": 15020, "taluk": 23140, "##fires": 26332, "dj": 6520, "disrepair": 27799, "214": 19936, "gia": 27699, "interior": 4592, "messenger": 11981, "##gold": 21270, "continual": 27222, "pieces": 4109, "flock": 19311, "hughes": 8099, "nippon": 19364, "##fahan": 28975, "##owing": 14138, "chip": 9090, "er": 9413, "should": 2323, "jackie": 9901, "\u304f": 1653, "periphery": 23275, "tolerated": 25775, "anchorage": 21086, "##lus": 7393, "theodore": 10117, "convened": 19596, "radius": 12177, "\u3057": 1657, "##rons": 28212, "##folia": 21710, "kowalski": 28874, "haven": 4033, "heights": 7535, "flotilla": 17150, "stretch": 7683, "railroad": 4296, "archaeologist": 18821, "during": 2076, "[unused801]": 806, "stainless": 18676, "severn": 24753, "turks": 12896, "globalization": 24370, "compromised": 20419, "traps": 16735, "joey": 9558, "influence": 3747, "marius": 20032, "magistrates": 23007, "iphone": 18059, "fraud": 9861, "battista": 28422, "naughty": 20355, "##fect": 25969, "spraying": 29035, "glared": 9400, "piracy": 24386, "high": 2152, "strokes": 13692, "explained": 4541, "removed": 3718, "##so": 6499, "reckless": 18555, "honourable": 17164, "corbin": 24003, "sonya": 27926, "##\u661f": 30392, "costello": 21015, "maris": 23787, "carolina": 3792, "persecuted": 27666, "myra": 23020, "##roved": 26251, "##lean": 20898, "194": 19955, "burnt": 11060, "monuments": 10490, "corruption": 7897, "1796": 13885, "[unused184]": 189, "hopping": 26397, "limited": 3132, "revolt": 10073, "alien": 7344, "botany": 17018, "##bol": 14956, "encounters": 11340, "braun": 21909, "xiao": 19523, "rahman": 14364, "sailed": 7434, "negative": 4997, "maria": 3814, "##phic": 17926, "elementary": 4732, "vertex": 19449, "\u6c38": 1896, "emergence": 14053, "440": 17422, "gao": 17377, "[unused33]": 34, "coloring": 22276, "##37": 24434, "sorts": 11901, "orbits": 20347, "qc": 25196, "dialogues": 22580, "zach": 12397, "go": 2175, "ordination": 18129, "patricia": 10717, "father": 2269, "sadler": 29012, "forested": 15205, "providence": 11293, "tapestry": 25213, "awful": 9643, "##bah": 24206, "constructions": 21913, "writing": 3015, "[unused659]": 664, "diverted": 18356, "yue": 27163, "##\u0e2d": 29957, "handicap": 15822, "helped": 3271, "##uka": 15750, "beasts": 15109, "sociologist": 25106, "portfolio": 11103, "aims": 8704, "notes": 3964, "weapons": 4255, "##core": 17345, "##mming": 25057, "152": 15017, "walls": 3681, "flare": 17748, "##eving": 23559, "fundraiser": 28536, "tinted": 25577, "dun": 24654, "##kt": 25509, "plains": 8575, "since": 2144, "bali": 20222, "felony": 24648, "1760": 19096, "helicopter": 7739, "##cen": 27524, "maurice": 7994, "complaint": 12087, "##\u677e": 30406, "voter": 14303, "regime": 6939, "icons": 18407, "faced": 4320, "galerie": 17941, "processing": 6364, "##bad": 9024, "##ano": 6761, "pagan": 14318, "\u0282": 1129, "barge": 19398, "worry": 4737, "\u00a5": 1071, "bacterium": 24024, "visa": 9425, "##rso": 25301, "flavors": 26389, "dreamer": 24726, "morning": 2851, "leonard": 7723, "##arus": 29133, "##kara": 16566, "##ivar": 28739, "foundry": 19853, "southport": 27494, "##\u5730": 30328, "##dou": 26797, "organize": 10939, "prospect": 9824, "275": 17528, "##\u0442": 22919, "saturday": 5095, "agnes": 11166, "additional": 3176, "##\u5e7f": 30368, "kirby": 15129, "nuclei": 23767, "ukrainian": 5969, "##sier": 20236, "harvest": 11203, "[unused415]": 420, "marseille": 16766, "calculating": 20177, "##lined": 18194, "silenced": 25030, "prostitutes": 20833, "managing": 6605, "flopped": 24723, "wiley": 18825, "englishman": 25244, "animals": 4176, "trumpets": 26506, "polymers": 27216, "palo": 24326, "due": 2349, "celebrities": 12330, "less": 2625, "1609": 28058, "cans": 18484, "advises": 25453, "##\u4e4b": 30275, "fox": 4419, "excused": 28512, "##holm": 18884, "##lies": 11983, "lambda": 23375, "\u2010": 1513, "periodic": 15861, "yorker": 19095, "remains": 3464, "##mbling": 29256, "1891": 6607, "pascal": 17878, "[unused910]": 915, "appetite": 18923, "south": 2148, "##bbling": 15343, "ceramic": 14692, "zones": 10019, "used": 2109, "##\u21cc": 30118, "chateau": 11874, "##ient": 11638, "categorized": 20427, "trials": 7012, "slow": 4030, "tin": 9543, "advisers": 24205, "norman": 5879, "turned": 2357, "glover": 20012, "##lka": 26518, "benevolent": 25786, "calves": 28023, "##garh": 13484, "co": 2522, "recently": 3728, "thorne": 14296, "balanced": 12042, "##ricting": 28827, "rocks": 5749, "nationals": 10342, "##tp": 25856, "require": 5478, "1724": 26423, "finite": 10713, "solitary": 14348, "vertically": 20018, "coptic": 27672, "##itor": 15660, "##dman": 21804, "bellevue": 26756, "trojan": 23445, "format": 4289, "##nna": 9516, "topped": 9370, "mutually": 20271, "plant": 3269, "originally": 2761, "lancashire": 9638, "strip": 6167, "##lmer": 23398, "attended": 3230, "##iman": 18505, "cancellation": 16990, "trough": 23389, "slumped": 14319, "##nai": 26416, "sas": 21871, "newer": 10947, "[unused17]": 18, "pasture": 20787, "\u0e32": 1422, "malvern": 28082, "irs": 25760, "qualities": 11647, "boasts": 21979, "thematic": 23539, "##ino": 5740, "##wald": 11191, "theaters": 12370, "##bai": 26068, "heels": 8265, "palatinate": 18990, "tolerance": 13986, "midway": 12213, "##ist": 2923, "hawthorn": 21671, "milk": 6501, "strategically": 23972, "elemental": 19529, "actress": 3883, "##cel": 29109, "prevailed": 19914, "goin": 17249, "peeking": 28222, "probe": 15113, "soap": 7815, "pepper": 11565, "fronts": 21430, "swore": 12860, "\u0444": 1199, "1612": 29186, "##vyn": 23487, "argues": 9251, "##\u300e": 30169, "economic": 3171, "grammy": 8922, "continuity": 13717, "1835": 10150, "##\u092c": 29865, "patrick": 4754, "eagerly": 17858, "effect": 3466, "frankly": 19597, "720": 22857, "ethiopia": 11154, "##\u11a8": 30020, "stain": 21101, "##hman": 13890, "nobility": 11760, "photos": 7760, "zoological": 26168, "nhl": 7097, "##oped": 24174, "age": 2287, "foot": 3329, "refining": 28596, "sami": 17015, "apples": 18108, "showdown": 24419, "grace": 4519, "leisure": 12257, "disaster": 7071, "demeanor": 21745, "##\u062c": 29819, "intrinsic": 23807, "growled": 8881, "kicks": 14590, "sergio": 13983, "##puri": 24661, "household": 4398, "albans": 26311, "certainly": 5121, "isil": 19600, "capitalist": 19640, "\u03b7": 1161, "notation": 14869, "sri": 5185, "ellis": 8547, "##bbing": 23200, "branch": 3589, "georgetown": 12982, "internationale": 21339, "sarawak": 21546, "accompanying": 10860, "ctv": 28720, "trolls": 27980, "communists": 13009, "##\u30de": 30249, "rai": 15547, "temperament": 26270, "##ailing": 29544, "mora": 26821, "[unused737]": 742, "##ive": 3512, "ruthless": 18101, "changed": 2904, "bloody": 6703, "bathurst": 21897, "counseling": 17041, "##\u00d7": 26306, "passages": 13768, "architects": 8160, "airplane": 13297, "collaborative": 12317, "limp": 14401, "cruisers": 16722, "funeral": 6715, "sc": 8040, "##eses": 23072, "##thus": 19877, "awarded": 3018, "##not": 17048, "klan": 26613, "lantern": 12856, "attach": 22476, "##eux": 20860, "dana": 11271, "deciduous": 22411, "mainly": 3701, "chennai": 12249, "investigates": 28062, "imam": 17189, "compensation": 9430, "##opus": 24676, "ferocious": 27863, "lagos": 16738, "prism": 26113, "suffrage": 15178, "bats": 12236, "##nac": 18357, "devoted": 7422, "ethernet": 26110, "transparent": 13338, "turkish": 5037, "noir": 15587, "survivor": 12084, "everest": 23914, "interceptions": 18387, "experience": 3325, "salute": 17664, "reece": 24227, "ferries": 20157, "height": 4578, "fivb": 28423, "noisy": 20810, "specially": 11974, "1903": 5778, "wards": 11682, "home": 2188, "##\u067e": 29839, "recruited": 8733, "\u897f": 1947, "tenor": 9534, "\u0e2a": 1420, "470": 21064, "nursery": 13640, "alternative": 4522, "merrill": 16239, "barrow": 15355, "nh": 18699, "slice": 14704, "focus": 3579, "summons": 24814, "watering": 25813, "##\u4e8c": 30278, "satisfy": 13225, "commanders": 11437, "yields": 16189, "mars": 7733, "sea": 2712, "##mmon": 24521, "department": 2533, "worcestershire": 20218, "foraging": 26912, "quarterfinal": 29380, "##inho": 29344, "##tric": 12412, "davy": 23255, "successfully": 5147, "123": 13138, "generally": 3227, "registering": 25719, "dealing": 7149, "collaborating": 20295, "peng": 26473, "##rrick": 24999, "reservoir": 8071, "invertebrates": 25700, "dotted": 20384, "shaping": 20300, "serviced": 22858, "##zoo": 23221, "diabetes": 14671, "gloves": 11875, "fits": 16142, "toxicity": 22423, "watson": 7908, "refueling": 23026, "manner": 5450, "eager": 9461, "violating": 20084, "commuter": 14334, "invested": 11241, "postseason": 17525, "haitian": 21404, "wikipedia": 16948, "1855": 8492, "barnes": 9957, "chairs": 8397, "integrity": 11109, "letters": 4144, "incident": 5043, "pancakes": 28470, "stefan": 8852, "relocation": 18344, "assam": 15181, "kingston": 9803, "dipped": 13537, "kitty": 14433, "songwriters": 20602, "writ": 25697, "persecution": 14522, "ideological": 17859, "auditioned": 23008, "##uation": 14505, "\u209b": 1570, "forts": 15421, "tanzania": 11959, "cottage": 9151, "fundamental": 8050, "winston": 10180, "residents": 3901, "##gill": 19791, "freely": 10350, "baltimore": 6222, "awakened": 20256, "##watch": 18866, "conversation": 4512, "attributed": 7108, "##otho": 29288, "utter": 14395, "##dd": 14141, "f1": 20069, "primera": 14837, "\u0640": 1290, "lok": 13660, "executions": 22679, "occupies": 14133, "winding": 12788, "##ise": 5562, "##ags": 26454, "raging": 17559, "##tha": 8322, "earthly": 29520, "74": 6356, "##zone": 15975, "egypt": 5279, "baths": 19692, "distributed": 5500, "text": 3793, "sedan": 15134, "collaborator": 18843, "[unused629]": 634, "ineligible": 22023, "aforementioned": 17289, "##inatory": 28230, "walker": 5232, "farther": 8736, "bala": 21451, "pristine": 27375, "tongue": 4416, "chesterfield": 22699, "column": 5930, "mandela": 26887, "appears": 3544, "cramer": 29433, "##mium": 27759, "absorbing": 20998, "maggie": 8538, "counterparts": 14562, "narrowly": 11866, "pastor": 9220, "affiliated": 6989, "across": 2408, "killing": 4288, "north": 2167, "ultimate": 7209, "##tling": 15073, "##\u30cb": 30242, "acquisitions": 19530, "beau": 17935, "cushion": 22936, "apr": 19804, "attackers": 17857, "expenses": 11727, "introductions": 25795, "smells": 14747, "##hl": 7317, "clue": 9789, "scarce": 18782, "\u2098": 1567, "valuable": 7070, "##hair": 26227, "##power": 11452, "100th": 16919, "\u06c1": 1308, "pere": 23976, "aristocratic": 19774, "\u793a": 1923, "##igate": 28731, "airfield": 9087, "founded": 2631, "boogie": 21495, "for": 2005, "denise": 15339, "##az": 10936, "\u9999": 1979, "duct": 23245, "younger": 3920, "fallen": 5357, "##\u304b": 30177, "interiors": 20769, "stumbled": 9845, "##acies": 20499, "##cot": 24310, "blooms": 29037, "faux": 29276, "##cu": 10841, "gov": 18079, "investigating": 11538, "encounter": 8087, "##ieving": 25587, "horns": 11569, "##hen": 10222, "sloane": 17558, "parents": 3008, "gin": 18353, "libyan": 19232, "vikram": 29063, "quebec": 5447, "##15": 16068, "technological": 10660, "##ency": 11916, "justice": 3425, "mast": 15429, "adler": 17969, "hitler": 8042, "sparks": 12300, "weimar": 20695, "\u09a7": 1365, "porte": 25927, "##shida": 25541, "participants": 6818, "indigenous": 6284, "markers": 16387, "uniformly": 27423, "dialects": 11976, "##ie": 2666, "liberalism": 26505, "cyrillic": 15522, "pacific": 3534, "[unused371]": 376, "##ugh": 8953, "rent": 9278, "##\u9234": 30491, "zen": 16729, "deity": 12764, "##bbies": 27982, "gubernatorial": 19100, "clever": 12266, "outsiders": 22361, "yell": 14315, "smartphone": 26381, "##lity": 18605, "invasion": 5274, "nurse": 6821, "clock": 5119, "heidi": 21372, "adept": 26398, "translators": 28396, "genres": 11541, "adopt": 11092, "sicily": 12071, "##ywood": 26985, "##\u3082": 30207, "fresh": 4840, "necklace": 13016, "warmed": 17336, "wholesale": 17264, "militant": 16830, "caucasus": 16512, "##nction": 27989, "dominating": 21949, "faa": 17032, "hostile": 10420, "lately": 9906, "\u03b3": 1157, "##yoshi": 19196, "##fr": 19699, "##ako": 20411, "##hor": 16368, "experienced": 5281, "stagecoach": 26025, "meng": 27955, "##filtration": 28674, "##tum": 11667, "##\u0649": 29837, "##suit": 28880, "guido": 20239, "##dle": 10362, "\u207a": 1544, "coven": 25248, "penelope": 18641, "##gonal": 20028, "cartwright": 27513, "mathematician": 13235, "apparent": 6835, "##long": 10052, "evaluating": 23208, "flaws": 21407, "still": 2145, "mechanical": 6228, "vastly": 24821, "##\u11af": 30022, "##eto": 18903, "##\u5dde": 30362, "##\u5317": 30307, "emotion": 7603, "guerre": 24613, "motorway": 13119, "##\u0646": 15915, "scholarship": 6566, "bret": 25626, "##25": 17788, "##\u6728": 30401, "proliferation": 20250, "hum": 14910, "foreman": 18031, "institution": 5145, "##ified": 7810, "pamphlets": 24752, "speculation": 12143, "tails": 17448, "\u674e": 1877, "dune": 21643, "##km": 22287, "##\u27e8": 30155, "background": 4281, "##inkles": 28562, "\u02b8": 1144, "anatolia": 23747, "##bh": 23706, "colonization": 18962, "spends": 15970, "introduced": 3107, "dropping": 7510, "reservoirs": 22535, "finance": 5446, "medial": 23828, "motorsports": 20711, "clear": 3154, "##rca": 18992, "adventure": 6172, "pauses": 19623, "vengeance": 14096, "1848": 7993, "##nea": 22084, "##^": 29637, "##\u0baf": 29926, "##iest": 10458, "roughly": 5560, "owed": 12232, "wrists": 12150, "##itz": 8838, "drank": 10749, "conservative": 4603, "tropical": 5133, "sniffed": 18013, "##alle": 24164, "gallant": 26984, "##icing": 23553, "bologna": 14102, "##gur": 27390, "fig": 20965, "fountains": 23497, "crawled": 12425, "dealings": 24069, "308": 24232, "##chon": 24561, "475": 28245, "flop": 28583, "synod": 15374, "workshops": 9656, "[unused666]": 671, "halls": 9873, "##orno": 26295, "##sitor": 28307, "aisles": 25442, "\u0561": 1219, "accusation": 19238, "confederacy": 18179, "##var": 10755, "nod": 7293, "intellect": 24823, "ed": 3968, "usaf": 18531, "constabulary": 23791, "nielsen": 13188, "renovated": 10601, "thoughtful": 16465, "##itzer": 19253, "##bari": 25990, "[unused796]": 801, "navajo": 22440, "kiss": 3610, "##hmi": 26837, "cathy": 18305, "\u9234": 1965, "##olis": 20872, "sufi": 21845, "##plication": 21557, "[unused245]": 250, "got": 2288, "anzac": 29224, "cement": 11297, "theo": 14833, "objections": 17304, "kill": 3102, "baking": 21522, "##ignant": 25593, "stripping": 23987, "\u300d": 1642, "baked": 17776, "warned": 7420, "airborne": 10519, "kneeling": 16916, "57th": 28623, "creations": 20677, "zeus": 15208, "amounts": 8310, "taft": 19911, "ems": 29031, "resume": 13746, "##hler": 13620, "protective": 9474, "##\u0648": 29836, "inhabitants": 4864, "venerable": 24541, "\u0435": 1185, "reza": 26323, "idea": 2801, "[unused786]": 791, "which": 2029, "##uram": 27618, "campaign": 3049, "cameo": 12081, "315": 22904, "76": 6146, "napier": 21320, "mcdowell": 25005, "thriving": 20319, "cruises": 23986, "drivers": 6853, "##ml": 19968, "receptionist": 23775, "\u4eac": 1755, "##ben": 10609, "coffin": 13123, "guarding": 17019, "converting": 16401, "[unused545]": 550, "35th": 20198, "maddox": 22730, "gdp": 14230, "cycle": 5402, "vowed": 18152, "celtics": 23279, "reborn": 24910, "steel": 3886, "sale": 5096, "##\u2261": 30134, "routinely": 19974, "##eiro": 17166, "##overs": 24302, "coastline": 15458, "thanked": 15583, "dieter": 27976, "cotton": 6557, "gave": 2435, "naming": 10324, "sanders": 12055, "##ez": 9351, "nightly": 22390, "torque": 15894, "noticeably": 25327, "partial": 7704, "polled": 26847, "ace": 9078, "propeller": 15692, "with": 2007, "motors": 9693, "[unused805]": 810, "journalism": 8083, "##plane": 11751, "da": 4830, "forgetting": 17693, "spelled": 11479, "archaeology": 12009, "right": 2157, "territories": 6500, "situation": 3663, "solve": 9611, "shire": 13182, "precipitation": 13511, "showcasing": 27696, "javier": 13824, "grants": 8624, "indifference": 25920, "virus": 7865, "brutal": 12077, "##iv": 12848, "##\u6c11": 30418, "by": 2011, "bedrooms": 18390, "sticks": 12668, "explanation": 7526, "angled": 18756, "qualify": 7515, "arias": 25905, "##fm": 16715, "##rdi": 17080, "julio": 15090, "##scia": 27210, "arose": 10375, "panthers": 12915, "salon": 11090, "harley": 13653, "##\u1172": 30016, "tail": 5725, "lyndon": 23037, "twice": 3807, "\u0b9a": 1383, "strap": 16195, "##onic": 12356, "promoting": 7694, "trilogy": 11544, "##lein": 19856, "courage": 8424, "cervical": 28711, "##utive": 28546, "[unused516]": 521, "rey": 12569, "escorts": 24877, "trade": 3119, "##mark": 10665, "commands": 10954, "nicola": 17388, "courtyard": 10119, "spirited": 24462, "bazaar": 22774, "crowned": 10249, "democrats": 8037, "about": 2055, "physicians": 11572, "supervised": 13588, "surpassed": 15602, "fridge": 16716, "journal": 3485, "proclaimed": 10116, "properties": 5144, "acids": 12737, "cloth": 8416, "[unused717]": 722, "1728": 26833, "##asia": 15396, "##minating": 27932, "robert": 2728, "##itive": 13043, "descendants": 8481, "kingsley": 22819, "tribes": 6946, "\u06af": 1305, "releases": 7085, "##gent": 11461, "##rigues": 22934, "softness": 27012, "kg": 4705, "peek": 19043, "[unused603]": 608, "dimitri": 15953, "grin": 5861, "\u0bb3": 1393, "supplement": 12448, "definitive": 15764, "unofficial": 11982, "thumb": 7639, "##rization": 26910, "rule": 3627, "instead": 2612, "jason": 4463, "1965": 3551, "confirming": 19195, "##\u02e4": 29719, "observes": 24451, "lucivar": 21401, "eligible": 7792, "##\u1d63": 30043, "ns": 24978, "##\u0435": 15290, "utility": 9710, "afterlife": 25115, "nature": 3267, "northern": 2642, "[unused19]": 20, "circulation": 9141, "##ulous": 16203, "##\u516c": 30298, "programs": 3454, "evacuated": 13377, "supporters": 6793, "sighted": 19985, "decorative": 11584, "\u2085": 1552, "##rs": 2869, "analogy": 23323, "investment": 5211, "##rized": 18425, "##\u5343": 30310, "rotor": 18929, "##ski": 5488, "\u0443": 1198, "stint": 12116, "##bson": 27355, "intercollegiate": 21587, "others": 2500, "[unused513]": 518, "atoll": 22292, "##gg": 13871, "750": 9683, "courier": 18092, "##\u90ce": 30484, "juliette": 24696, "meridian": 17984, "##ban": 8193, "[unused83]": 84, "##udes": 22087, "hawks": 12505, "sue": 9790, "\u09ad": 1369, "flirting": 20661, "filly": 22062, "[unused827]": 832, "influenza": 24442, "##zon": 11597, "bang": 9748, "lovers": 10205, "navarre": 21260, "evelyn": 12903, "##\u5bfa": 30353, "referee": 5330, "brigade": 4250, "landscape": 5957, "online": 3784, "nutrients": 20435, "##jected": 24455, "[unused170]": 175, "##card": 11522, "submerged": 13563, "\u4e0a": 1742, "##ifice": 23664, "harlan": 24276, "stared": 3592, "translit": 28468, "##wise": 14244, "fritz": 12880, "automatically": 8073, "repeats": 17993, "##bbe": 19473, "imagination": 9647, "ot": 27178, "ousted": 28368, "bandages": 27993, "\u2666": 1626, "\u1174": 1482, "pv": 26189, "extremely": 5186, "invasive": 17503, "primetime": 18474, "reminiscent": 14563, "##tar": 7559, "pneumonia": 18583, "aggravated": 25817, "##note": 22074, "foods": 9440, "injection": 13341, "coastal": 5780, "devils": 13664, "marco": 8879, "pro": 4013, "rios": 25836, "rotating": 13618, "viva": 20022, "someone": 2619, "abd": 19935, "witty": 25591, "##tituted": 29139, "elites": 27021, "balkan": 17581, "gs": 28177, "##\u0997": 29891, "umm": 26114, "pigeon": 16516, "##zers": 16750, "mixing": 6809, "##ties": 7368, "lighted": 26390, "breeze": 9478, "policing": 21107, "[unused973]": 978, "windows": 3645, "##\u77f3": 30448, "confirm": 12210, "jeep": 14007, "nirvana": 26530, "shakespeare": 8101, "brandy": 17951, "astonishing": 26137, "bacteria": 10327, "clearance": 14860, "stitches": 25343, "peak": 4672, "aggressive": 9376, "##cision": 28472, "grow": 4982, "homework": 19453, "heresy": 28354, "likely": 3497, "wavy": 23098, "nickname": 8367, "inflammation": 21733, "morton": 11164, "\u0dba": 1404, "santos": 11053, "alex": 4074, "santiago": 8728, "[unused552]": 557, "bis": 20377, "fate": 6580, "yuki": 24924, "chuckles": 26088, "##\u1d65": 30045, "niger": 16842, "fairies": 20182, "demise": 13614, "##ading": 23782, "##\u6c0f": 30417, "village": 2352, "issue": 3277, "##ruff": 26919, "##hem": 29122, "##\u0564": 29769, "nationwide": 9053, "has": 2038, "goofy": 27243, "narcotics": 27290, "##\u0263": 29683, "as": 2004, "##brush": 18623, "firmly": 7933, "breasts": 12682, "obesity": 24552, "ram": 8223, "##ples": 21112, "lingering": 15304, "##xon": 22500, "faith": 4752, "guarded": 13802, "intimacy": 20893, "respecting": 27818, "##\uff1a": 30519, "##4th": 26724, "rhea": 24775, "shear": 18330, "##isance": 28138, "##rey": 15202, "##ues": 15808, "conversations": 11450, "prevented": 8729, "\u1d49": 1499, "bf": 28939, "khalifa": 27925, "commanded": 6311, "ben": 3841, "mix": 4666, "worthless": 22692, "oriental": 11481, "##jack": 17364, "signatures": 16442, "##recht": 28109, "mumbled": 11567, "accessory": 25339, "kun": 28919, "reactions": 9597, "strolled": 20354, "[unused842]": 847, "##thic": 23048, "accommodations": 26167, "indonesian": 9003, "lordship": 20698, "strings": 7817, "parted": 10277, "benefit": 5770, "updated": 7172, "##\u00fe": 29670, "cornerstone": 23354, "romanesque": 17135, "superhuman": 27061, "slack": 19840, "##\u2192": 30113, "##ami": 10631, "sickness": 15556, "children": 2336, "mont": 18318, "heavy": 3082, "exceeding": 17003, "certificates": 17987, "unnoticed": 22719, "##\u5bb6": 30351, "os": 9808, "battle": 2645, "##ffey": 24513, "##pm": 9737, "cavalier": 28778, "rods": 19485, "simplified": 11038, "\u00bf": 1094, "##lal": 13837, "tally": 19552, "unfinished": 14342, "piece": 3538, "cycling": 9670, "naturally": 8100, "tacoma": 22954, "\u10e1": 1452, "torch": 12723, "##ened": 6675, "343": 27810, "sprawling": 24199, "trial": 3979, "##mal": 9067, "west": 2225, "undercover": 16382, "count": 4175, "williamson": 14333, "charges": 5571, "cornered": 25878, "##illy": 20577, "\u751f": 1910, "miniseries": 13612, "kochi": 27603, "perry": 6890, "sprawled": 21212, "##nty": 29405, "franz": 8965, "brigades": 14589, "&": 1004, "den": 7939, "##\u2086": 30082, "bridge": 2958, "spartans": 24293, "theodor": 21448, "[unused581]": 586, "causeway": 23336, "jorge": 10853, "##itis": 13706, "##nail": 25464, "cruel": 10311, "steered": 23424, "andrei": 18125, "laura": 6874, "candy": 9485, "podium": 14502, "381": 29335, "citadel": 15364, "\u30ab": 1700, "luigi": 15153, "playwright": 11170, "burkina": 23089, "radiated": 23000, "sax": 19656, "fiat": 18550, "crimson": 11466, "disused": 26958, "worrying": 15366, "##bro": 12618, "truss": 24224, "gasoline": 13753, "volleyball": 7454, "huh": 9616, "example": 2742, "disconnected": 23657, "##hing": 12053, "props": 24387, "heraldic": 28867, "oz": 11472, "concentrate": 10152, "##cit": 26243, "[unused779]": 784, "racing": 3868, "proposed": 3818, "##umatic": 25360, "churchill": 10888, "##xt": 18413, "##\u10d8": 29981, "starting": 3225, "bertrand": 20586, "##rricular": 21231, "\u05d0": 1241, "demos": 18267, "abel": 16768, "adolf": 12500, "autonomous": 8392, "clasped": 16763, "indira": 28232, "roller": 11220, "textiles": 18762, "unmarked": 25779, "promote": 5326, "researchers": 6950, "[unused69]": 70, "ashore": 16145, "compartments": 27998, "127": 13029, "clutch": 15357, "noelle": 22336, "koln": 28306, "devin": 23601, "nate": 8253, "costing": 22173, "clarissa": 25260, "##uit": 14663, "\u2228": 1603, "\u0dbd": 1406, "relies": 16803, "##ai": 4886, "lift": 6336, "##mur": 20136, "samples": 8168, "##in": 2378, "trimmed": 21920, "##nian": 11148, "caesar": 11604, "inaccurate": 24949, "##\u301c": 30171, "kuala": 15490, "qi": 18816, "\u4e95": 1754, "departed": 7745, "##\u201d": 30059, "monsters": 9219, "[unused526]": 531, "sonora": 26647, "steadily": 11328, "gables": 27008, "asteroids": 26732, "excavations": 14018, "paid": 3825, "##ulously": 21227, "comedy": 4038, "squealed": 26175, "rupert": 14641, "bree": 21986, "pageant": 12438, "1973": 3381, "##chin": 17231, "members": 2372, "\u0448": 1203, "##cure": 23887, "bi": 12170, "blocked": 8534, "casting": 9179, "##ston": 7106, "##vite": 25217, "conrad": 10931, "##drik": 28730, "indo": 11424, "luke": 5355, "ar": 12098, "means": 2965, "railroads": 16197, "simultaneously": 7453, "wen": 19181, "dc": 5887, "sling": 27076, "vaccine": 17404, "fuji": 20933, "remnants": 11270, "hm": 20287, "landowners": 20152, "##zee": 23940, "onstage": 23542, "backlash": 25748, "##\u2665": 30152, "148": 16459, "11": 2340, "remorse": 23124, "##aly": 20766, "##\u0251": 29677, "##sation": 26652, "[unused248]": 253, "##hua": 14691, "respects": 17475, "bulky": 27446, "maori": 12600, "riot": 11421, "fargo": 23054, "niccolo": 27033, "##lum": 12942, "terminal": 5536, "directly": 3495, "robes": 17925, "##duced": 28901, "##screen": 18182, "[unused316]": 321, "cameron": 7232, "ivanov": 26333, "asphalt": 16295, "territorial": 7894, "##osis": 12650, "inscriptions": 12920, "practitioners": 14617, "##feld": 8151, "polished": 12853, "advising": 23875, "nitrogen": 14114, "medication": 14667, "netball": 25034, "216": 20294, "liturgy": 21176, "mortar": 14335, "discount": 19575, "##\u2194": 30115, "##gli": 25394, "romani": 23982, "266": 25162, "##ury": 13098, "instances": 12107, "targeting": 14126, "turnbull": 26439, "evolution": 6622, "internationally": 7587, "harmed": 25596, "shifter": 18189, "1623": 29056, "stimulus": 19220, "royals": 15426, "timely": 23259, "##vies": 25929, "##ec": 8586, "attribute": 17961, "madhya": 20841, "u": 1057, "colton": 21000, "suited": 10897, "nikolay": 28494, "salt": 5474, "moderator": 29420, "vital": 8995, "quinlan": 28451, "reintroduced": 28263, "teased": 13074, "##less": 3238, "feet": 2519, "sharif": 20351, "barked": 17554, "commemorate": 13415, "soft": 3730, "seminary": 8705, "[unused616]": 621, "strips": 12970, "indication": 12407, "scream": 6978, "raul": 16720, "pajamas": 27621, "societe": 18341, "alleging": 23294, "educators": 19156, "##lik": 18393, "creature": 6492, "projection": 13996, "self": 2969, "chew": 21271, "sponge": 25742, "[unused584]": 589, "holly": 9079, "stigma": 26453, "accuracy": 10640, "kv": 24888, "labrador": 18604, "owns": 8617, "##ggle": 24679, "ethnic": 5636, "rector": 10935, "##\u03c6": 29736, "hamish": 28859, "pot": 8962, "##ieri": 21939, "1717": 27525, "dynasty": 5321, "##culus": 28703, "signals": 7755, "blushing": 25771, "175": 12862, "leyte": 27214, "nassau": 14646, "swearing": 25082, "horizontally": 23190, "\u5317": 1781, "##nsed": 27730, "##copic": 26461, "##phile": 24862, "crowds": 12783, "insistence": 20616, "invalid": 19528, "kabul": 21073, "##enes": 28553, "keynes": 22152, "lewis": 4572, "crore": 21665, "skimmed": 28862, "tamil": 6008, "concept": 4145, "feelings": 5346, "lax": 27327, "scratch": 11969, "secession": 22965, "1729": 28449, "\u3046": 1648, "novella": 20674, "watershed": 12547, "feng": 19004, "suitable": 7218, "hear": 2963, "##udence": 29424, "##hala": 19531, "continuous": 7142, "grossed": 17500, "carly": 18431, "alarmed": 19260, ",": 1010, "heavyweight": 8366, "boise": 23193, "[unused977]": 982, "prehistoric": 14491, "forged": 16158, "\u5408": 1792, "representatives": 4505, "bisexual": 22437, "saves": 13169, "wilkes": 20635, "ka": 10556, "elias": 14579, "uncomfortably": 22502, "\u092c": 1329, "luciano": 24512, "screwing": 29082, "##olio": 29401, "253": 23254, "dalton": 12413, "gardening": 21529, "policy": 3343, "onset": 14447, "renault": 14605, "##dara": 25329, "states": 2163, "\u9ad8": 1981, "##ota": 17287, "bean": 14068, "##der": 4063, "extinguished": 27705, "##tula": 28970, "##verance": 21998, "compared": 4102, "intervening": 26623, "statutory": 15201, "muscle": 6740, "angie": 14835, "cipher": 27715, "[unused6]": 7, "brooklyn": 6613, "puzzles": 19672, "##nick": 13542, "dismissal": 15322, "vila": 23840, "fiscal": 10807, "gulped": 25411, "##writer": 15994, "sabine": 18578, "eaton": 17642, "1826": 11931, "heinz": 17655, "[unused706]": 711, "##lei": 23057, "##rica": 14735, "##xley": 20959, "bethlehem": 19360, "greens": 15505, "licenses": 15943, "dung": 29328, "bounty": 17284, "nighttime": 26031, "##lce": 23314, "berth": 17064, "conscription": 26329, "javanese": 27344, "\u5e78": 1841, "wta": 21925, "\u7cf9": 1934, "carries": 7883, "defective": 28829, "copa": 10613, "quietly": 5168, "(": 1006, "rumbling": 26670, "settles": 27221, "burke": 9894, "horned": 26808, "mineral": 9754, "1846": 9244, "paste": 19351, "giacomo": 22873, "par": 11968, "##bourg": 20431, "1662": 25909, "overall": 3452, "mandir": 22700, "resemblance": 14062, "exemplary": 27792, "ignited": 22395, "occurrences": 27247, "interpretation": 7613, "marshes": 19257, "##nte": 10111, "##lio": 12798, "wounding": 27285, "intensity": 8015, "adjoining": 13562, "syriac": 24109, "nigerian": 11884, "gwen": 11697, "assistant": 3353, "absorption": 16326, "discoveries": 15636, "strengths": 20828, "verandah": 26153, "amused": 11770, "##cks": 10603, "lal": 21348, "humphrey": 15462, "accolades": 27447, "[unused136]": 141, "dunbar": 23034, "odi": 21045, "sleepy": 17056, "abe": 14863, "spinning": 9419, "immortal": 12147, "henderson": 9481, "carp": 29267, "[unused304]": 309, "incentives": 21134, "tuning": 17372, "dropped": 3333, "stemmed": 27674, "\u83ef": 1942, "manufacture": 9922, "violins": 25877, "441": 28015, "bce": 10705, "timer": 25309, "heating": 10808, "##isch": 19946, "reliance": 17975, "\u10d4": 1442, "stallion": 19122, "##yler": 20853, "nsa": 23971, "preview": 19236, "climbing": 8218, "\u0993": 1352, "russell": 5735, "slabs": 28761, "309": 25048, "screw": 11224, "[unused599]": 604, "cp": 18133, "genevieve": 20245, "lighting": 7497, "##ich": 7033, "deliberately": 9969, "investigator": 14064, "availability": 11343, "##ogist": 22522, "##grounds": 28951, "wiring": 27930, "\u0582": 1238, "strand": 11226, "damp": 10620, "sidewalks": 28386, "##ect": 22471, "special": 2569, "thoughts": 4301, "voluntarily": 17912, "lifting": 8783, "fleet": 4170, "\u5fc4": 1850, "alloys": 28655, "regimental": 17604, "connell": 17199, "theft": 11933, "##rr": 12171, "harper": 8500, "##oso": 19137, "sixty": 8442, "##rmin": 27512, "rein": 27788, "species": 2427, "utilization": 27891, "interception": 17385, "##af": 10354, "mic": 23025, "engineer": 3992, "##orne": 23846, "whirled": 17097, "era": 3690, "##lang": 25023, "income": 3318, "##eche": 27635, "1755": 21417, "1914": 4554, "parma": 19177, "consultative": 28581, "puck": 22900, "##cken": 19766, "syrup": 23353, "cop": 8872, "workings": 24884, "enables": 12939, "plastered": 21832, "carbon": 6351, "batter": 23801, "\u062f": 1278, "##\u043b": 29436, "[unused369]": 374, "biscuits": 27529, "clothed": 24963, "##hein": 26496, "emerge": 12636, "dona": 24260, "exercising": 28428, "##\u0641": 29833, "endure": 18094, "variant": 8349, "##ayton": 29319, "escort": 8620, "glued": 22805, "##haya": 26115, "bremen": 16314, "september": 2244, "arcadia": 25178, "345": 23785, "##onzo": 29452, "##lat": 20051, "208": 18512, "diary": 9708, "battalions": 10157, "blackmail": 25044, "fur": 6519, "notre": 10289, "overtook": 28920, "consultants": 22283, "quan": 24110, "cooperative": 10791, "clothes": 4253, "contestant": 10832, "log": 8833, "holt": 12621, "eventually": 2776, "##\u0437": 29744, "substitute": 7681, "hinted": 21795, "libertadores": 27968, "psychologist": 15034, "eyre": 26975, "curly": 17546, "angus": 13682, "sweetly": 22557, "sheath": 21867, "spine": 8560, "rejecting": 21936, "1792": 13414, "nipple": 14298, "[unused633]": 638, "donnelly": 28317, "reclaim": 24104, "##evich": 16277, "##erted": 28728, "ideals": 15084, "##ssee": 29522, "offers": 4107, "[unused277]": 282, "##rgh": 27172, "investments": 10518, "afraid": 4452, "mil": 23689, "psychologists": 25428, "##ducted": 29510, "thumbs": 16784, "##llet": 22592, "achievements": 10106, "coral": 11034, "theirs": 17156, "prasad": 17476, "disorders": 10840, "poor": 3532, "russia": 3607, "##stered": 24167, "towels": 24213, "aligned": 13115, "##antly": 15706, "dental": 11394, "organisms": 11767, "unfit": 29439, "##nk": 8950, "demoted": 25692, "desert": 5532, "##\u09ac": 29904, "bulb": 20581, "elongated": 17876, "oversees": 22558, "sierra": 7838, "##arded": 28037, "[unused250]": 255, "product": 4031, "darting": 24567, "peasants": 13193, "thrusting": 21468, "slams": 25967, "voodoo": 21768, "tornadoes": 22668, "hubert": 15346, "slim": 11754, "\uff1a": 1993, "demanding": 9694, "rang": 8369, "##orra": 24285, "joker": 19318, "##gen": 6914, "##\u7592": 30439, "rochelle": 25649, "\u028c": 1134, "mfa": 26913, "hillary": 18520, "hesitant": 20221, "franchises": 22506, "horizontal": 9876, "##imov": 25299, "reasons": 4436, "naples": 10553, "405": 23988, "##vron": 28588, "implementation": 7375, "##vius": 26055, "ff": 21461, "\u0638": 1287, "hampered": 22532, "##nos": 15460, "forcing": 6932, "endeavor": 23855, "mused": 22335, "albrecht": 25542, "##oro": 14604, "rhys": 13919, "kills": 8563, "emissions": 11768, "modification": 14080, "99": 5585, "##kato": 26020, "cockpit": 13828, "fourteen": 7426, "patriarch": 12626, "tampa": 9925, "noodles": 27130, "polytechnic": 14466, "beaufort": 23622, "illustration": 14614, "##fted": 18915, "##ites": 7616, "marquis": 13410, "\u092a": 1328, "gain": 5114, "noise": 5005, "unlike": 4406, "exiting": 22371, "1610": 25800, "ron": 6902, "darryl": 22821, "tram": 12517, "showcased": 22443, "lifeless": 22185, "comments": 7928, "cyclic": 23750, "bitterness": 22364, "[unused23]": 24, "billy": 5006, "1748": 24445, "noteworthy": 19144, "oceanic": 18955, "fantasies": 21233, "ponytail": 18865, "950": 20317, "##oney": 17791, "##ulation": 9513, "[unused418]": 423, "quarterback": 9074, "ratification": 27369, "##01": 24096, "dom": 14383, "##ffle": 18142, "ships": 3719, "squeak": 29552, "physician": 7522, "scenes": 5019, "mahogany": 23867, "models": 4275, "refusing": 11193, "eastwood": 24201, "hissed": 11402, "##ths": 26830, "pronounced": 8793, "laval": 26205, "intentions": 11174, "snoop": 29044, "[unused934]": 939, "##sed": 6924, "polling": 17888, "[unused962]": 967, "asthma": 26180, "##\u30b5": 30231, "cross": 2892, "gloucester": 13370, "whoever": 9444, "##ead": 13775, "baird": 20866, "choosing": 10549, "auspices": 20153, "direct": 3622, "writings": 7896, "mls": 16287, "nile": 15179, "##yar": 13380, "colleagues": 8628, "liszt": 26273, "literacy": 8433, "values": 5300, "precautions": 29361, "tab": 21628, "amazement": 21606, "myers": 13854, "return": 2709, "miracles": 17861, "\u0982": 1346, "prom": 20877, "grew": 3473, "sunglasses": 17072, "musique": 25784, "hurts": 13403, "20th": 3983, "skins": 21049, "strictly": 9975, "work": 2147, "olivier": 14439, "##abia": 29039, "pitted": 25895, "bryant": 12471, "##int": 18447, "taipei": 14004, "morality": 16561, "##lins": 24412, "1998": 2687, "equivalent": 5662, "preferred": 6871, "goalkeeper": 9653, "fix": 8081, "magician": 16669, "[unused322]": 327, "1820": 11102, "##lz": 23858, "gazing": 16448, "preparatory": 13485, "conflicts": 9755, "bacon": 11611, "samoa": 15075, "firearm": 23646, "peripheral": 15965, "joyce": 11830, "deemed": 8357, "hobbs": 23748, "leaned": 4016, "waltz": 17569, "cerambycidae": 13168, "greg": 6754, "1939": 3912, "hideout": 29588, "##wife": 19993, "##\u00be": 29665, "temperance": 23372, "yielded": 17544, "priest": 5011, "fuels": 20145, "naomi": 12806, "##\u0252": 29678, "refined": 15514, "curtains": 14694, "norwegian": 5046, "nes": 24524, "panama": 8515, "##ological": 10091, "singles": 3895, "conquer": 16152, "\u05e7": 1264, "##ulates": 18969, "barrio": 25676, "cocoa": 22940, "breakthrough": 12687, "stem": 7872, "##ean": 11219, "1941": 3874, "267": 25491, "##mounted": 27632, "provocative": 26422, "\u0272": 1123, "locomotives": 7830, "weir": 16658, "order": 2344, "hills": 4564, "brakes": 13627, "##ito": 9956, "dissolve": 21969, "frightening": 17115, "curved": 9203, "priesthood": 17911, "protruding": 23868, "ecumenical": 23540, "[unused899]": 904, "ep": 4958, "aeronautical": 25010, "neared": 20832, "delay": 8536, "flanagan": 26558, "remington": 25282, "organisation": 5502, "jaw": 5730, "[unused186]": 191, "verified": 20119, "##movable": 25661, "else": 2842, "spaniards": 20999, "streaked": 21276, "townsville": 27492, "\u00b6": 1086, "involves": 7336, "morales": 17103, "affirmed": 19768, "roofs": 15753, "\u3092": 1690, "poured": 8542, "peru": 7304, "##sor": 21748, "##stad": 16917, "retro": 22307, "##me": 4168, "sedimentary": 25503, "supplementary": 26215, "statements": 8635, "##\u0274": 29690, "charred": 29030, "188": 19121, "disturbance": 16915, "startled": 9696, "ventures": 13252, "heck": 17752, "\u79c0": 1928, "blackish": 22032, "rick": 6174, "pittsburgh": 6278, "##rogated": 26565, "drug": 4319, "susie": 23917, "whether": 3251, "clients": 7846, "anywhere": 5973, "bhp": 22245, "brat": 28557, "corrosion": 24625, "storage": 5527, "##\u795e": 30451, "texted": 24637, "1726": 28342, "daughter": 2684, "trading": 6202, "[unused208]": 213, "##rro": 18933, "mhz": 11413, "bk": 23923, "6": 1020, "reader": 8068, "tbs": 29584, "wealthy": 7272, "##eller": 24038, "rituals": 13549, "practicing": 12560, "sharpe": 22147, "neutron": 20393, "crowd": 4306, "surviving": 6405, "##oured": 16777, "scandinavian": 17660, "temperate": 16868, "potassium": 18044, "##mussen": 29134, "[unused102]": 107, "toes": 10393, "nissan": 16509, "army": 2390, "hellenic": 23122, "syn": 19962, "##\u0e17": 29948, "##\u1110": 30003, "deployment": 10813, "sabres": 26969, "##rosis": 29166, "venezuelan": 15332, "deserve": 10107, "[unused95]": 96, "\u02b0": 1140, "spencer": 7084, "flower": 6546, "unpredictable": 21446, "yellowstone": 29231, "raced": 8255, "performers": 9567, "medalist": 12968, "official": 2880, "cavern": 16679, "cora": 17195, "marcelo": 24984, "plantations": 14979, "simeon": 24371, "ivo": 28346, "jupiter": 13035, "garland": 17017, "isis": 18301, "dry": 4318, "stick": 6293, "##\u1d4f": 30037, "trickle": 26027, "##ray": 9447, "##rman": 14515, "1921": 4885, "columbia": 3996, "wwii": 25755, "[unused850]": 855, "amusing": 19142, "absorb": 16888, "##\u00b4": 29658, "\u2013": 1516, "##\u203f": 30069, "##\u1174": 30018, "halfway": 8576, "shay": 18789, "collateral": 24172, "graduation": 7665, "southend": 26104, "##cao": 20808, "website": 4037, "##sey": 7952, "activism": 16841, "buick": 28865, "organising": 21317, "cave": 5430, "cesare": 26708, "implications": 13494, "\u062a": 1273, "presidents": 11274, "infiltrate": 29543, "cinematographer": 19245, "solemn": 19487, "##\u5b66": 30343, "\u043e": 1193, "indefinitely": 20733, "janata": 20308, "clerk": 7805, "exported": 15612, "1685": 25053, "halftime": 22589, "troubles": 13460, "[unused699]": 704, "qin": 19781, "capita": 8353, "heir": 8215, "slaughter": 14574, "ranged": 15844, "[unused36]": 37, "beg": 11693, "eighth": 5964, "farmhouse": 16870, "federal": 2976, "##lda": 15150, "sunny": 11559, "maynard": 22130, "outlaws": 23107, "910": 27743, "asia": 4021, "##he": 5369, "destroys": 20735, "##ars": 11650, "##nie": 8034, "indian": 2796, "bingham": 24579, "[unused903]": 908, "##\u30ca": 30241, "industrialist": 21691, "stroke": 6909, "sensors": 13907, "\u0921": 1321, "diane": 12082, "piled": 17835, "cannot": 3685, "##\u4f50": 30290, "fk": 14352, "carpathian": 26349, "homicide": 18268, "receipts": 28258, "##backs": 12221, "\u1165": 1472, "demo": 9703, "##ssar": 25556, "caine": 19881, "slashed": 23587, "##king": 6834, "explosion": 7738, "versions": 4617, "\u0930": 1333, "intense": 6387, "286": 24921, "vlad": 19163, "strained": 12250, "switched": 7237, "sloppy": 28810, "vessel": 6258, "[unused263]": 268, "##tions": 9285, "outpost": 21080, "britten": 29429, "kyushu": 25885, "##ease": 19500, "##\u0281": 29694, "rhodes": 10588, "pioneering": 13280, "acquired": 3734, "border": 3675, "briggs": 15487, "##taking": 17904, "jr": 3781, "lockheed": 17646, "deposited": 14140, "lodge": 7410, "milling": 22491, "205": 16327, "helens": 24074, "speedway": 10688, "milo": 20359, "posthumously": 12770, "1702": 26776, "hays": 29051, "star": 2732, "irregularities": 28868, "offset": 16396, "[unused888]": 893, "ninth": 6619, "sellers": 19041, "requirement": 9095, "clasp": 23465, "\u6ca2": 1898, "condemning": 28525, "boating": 23639, "##uaries": 22579, "memorable": 13432, "unclear": 10599, "lacked": 10858, "49": 4749, "preferring": 21393, "alma": 11346, "cylinder": 7956, "flashback": 21907, "millennium": 10144, "##pur": 5311, "##ision": 19969, "cretaceous": 18122, "##rl": 12190, "##twined": 21077, "900": 7706, "catalytic": 26244, "doe": 18629, "harvested": 22629, "upheld": 16813, "skinned": 19937, "[unused971]": 976, "brandenburg": 16426, "##elli": 13348, "[unused290]": 295, "diagnosed": 11441, "international": 2248, "presumed": 14609, "##bation": 23757, "debra": 28762, "##\u00dfe": 17499, "commentary": 8570, "herbs": 17561, "[unused646]": 651, "authoritarian": 27246, "royalty": 16664, "\u2502": 1616, "funds": 5029, "##sable": 19150, "273": 25371, "140": 8574, "##ick": 6799, "##uria": 27703, "malik": 14360, "cory": 18342, "peaked": 6601, "hampton": 11615, "##drive": 23663, "migrate": 22806, "rbi": 16929, "sweating": 18972, "veracruz": 23741, "\u1111": 1468, "enterprise": 6960, "explored": 10641, "coarse": 20392, "##ely": 26006, "expresses": 16783, "fare": 13258, "[unused722]": 727, "beloved": 11419, "divert": 27345, "francesca": 15409, "omar": 13192, "ae": 29347, "basal": 15191, "##hang": 18003, "##sies": 14625, "toe": 11756, "\u10d0": 1438, "wendy": 12815, "grading": 26886, "mentoring": 29192, "familiarity": 24666, "##pia": 19312, "##rned": 21119, "deposed": 18298, "stepped": 3706, "brothers": 3428, "sidney": 11430, "basque": 13915, "##dding": 27027, "##ka": 2912, "blend": 12586, "radar": 7217, "storey": 11676, "bal": 28352, "##vina": 17948, "##ciency": 29125, "collarbone": 29600, "dna": 6064, "plots": 14811, "the": 1996, "##aldi": 24657, "ahmad": 10781, "evolving": 20607, "vote": 3789, "therapy": 7242, "parisian": 24262, "assistants": 16838, "faces": 5344, "##itude": 18679, "martin": 3235, "sarajevo": 18354, "##\u110a": 29998, "flawless": 27503, "seeks": 11014, "##ei": 7416, "##\u5bbf": 30352, "[unused251]": 256, "##iano": 15668, "##usa": 10383, "putin": 22072, "burma": 11050, "chemotherapy": 27144, "toast": 15174, "internship": 22676, "deviation": 24353, "m\u00b2": 7030, "clearly": 4415, "contention": 18974, "republicans": 10643, "[unused781]": 786, "beams": 13110, "##\u1d57": 30041, "kannada": 13873, "##pathic": 25940, "installed": 5361, "net": 5658, "virtue": 11870, "foam": 17952, "armando": 26716, "bothered": 11250, "nicaragua": 15448, "yo": 10930, "long": 2146, "trap": 8132, "earrings": 27212, "load": 7170, "modifications": 12719, "showcase": 13398, "mundo": 25989, "##grad": 16307, "claude": 8149, "hoover": 17443, "pharaoh": 22089, "kari": 27356, "##ana": 5162, "armenia": 10110, "##brate": 22008, "conflicting": 19326, "prime": 3539, "##eron": 26534, "gorge": 14980, "women": 2308, "##pro": 21572, "##pt": 13876, "athletics": 6482, "heads": 4641, "nova": 6846, "supports": 6753, "406": 27433, "presidency": 8798, "midst": 12930, "staff": 3095, "walkover": 17495, "1950": 3925, "##zing": 6774, "doubling": 19383, "\u5e73": 1839, "bundled": 24378, "[unused733]": 738, "coward": 16592, "conservatory": 11879, "nato": 10079, "distal": 29333, "jackson": 4027, "valkyrie": 26696, "puzzle": 11989, "thursday": 9432, "##peed": 25599, "buster": 18396, "avenues": 20859, "ceiling": 5894, "intends": 18754, "##orous": 25373, "mb": 16914, "##3d": 29097, "donations": 11440, "##tive": 6024, "##care": 16302, "landing": 4899, "mendoza": 18021, "wouldn": 2876, "faltered": 26015, "tar": 16985, "tutor": 14924, "bamboo": 15216, "##house": 4580, "160": 8148, "##\u03b4": 29722, "hog": 27589, "##tang": 26067, "expect": 5987, "wnba": 25554, "xii": 14371, "hansen": 13328, "piers": 16067, "enigma": 26757, "phosphorus": 25473, "escorted": 13127, "##\u060c": 29814, "hawaii": 7359, "pavilion": 10531, "##uded": 13936, "unopposed": 17123, "theoretical": 9373, "##aging": 16594, "india": 2634, "[unused232]": 237, "academia": 16926, "authors": 6048, "##xes": 20156, "showcases": 27397, "unaffected": 24720, "77": 6255, "##sic": 19570, "specimen": 11375, "wrenched": 26971, "alberta": 7649, "##\u90e1": 30485, "factions": 13815, "grammatical": 24402, "rum": 19379, "western": 2530, "installing": 23658, "##ement": 13665, "abraham": 8181, "trinity": 7124, "volunteers": 7314, "weakened": 11855, "##vu": 19722, "pu": 16405, "surrounded": 5129, "undone": 25757, "serb": 20180, "cradle": 18293, "lawsuit": 9870, "mary": 2984, "electorate": 13694, "portico": 23104, "whereas": 6168, "pointedly": 28713, "permitting": 24523, "##bour": 25127, "[unused782]": 787, "adam": 4205, "conclusion": 7091, "flanders": 13998, "bows": 21207, "bin": 8026, "drugs": 5850, "downloadable": 26720, "ara": 19027, "concourse": 28571, "womb": 26578, "sermon": 18408, "homeless": 11573, "\u0294": 1139, "##eded": 19082, "##\u09bf": 29915, "handball": 12378, "michael": 2745, "mikey": 25998, "fa": 6904, "##ices": 23522, "##\u1111": 30004, "convenience": 15106, "portals": 27388, "sucked": 8631, "broadcasters": 18706, "horticultural": 26235, "religious": 3412, "##ffs": 21807, "andrew": 4080, "##tated": 16238, "bomb": 5968, "1690": 24765, "##iol": 20282, "tam": 17214, "abolitionist": 29554, "midland": 12240, "airplanes": 24042, "counselor": 17220, "plaque": 11952, "\u5e1d": 1838, "novgorod": 24338, "gene": 4962, "flights": 7599, "evening": 3944, "katz": 20729, "##bo": 5092, "kato": 27496, "stadiums": 28244, "leaping": 21216, "verdi": 20580, "1950s": 4856, "older": 3080, "##olin": 18861, "drinks": 8974, "coding": 16861, "arizona": 5334, "##sonic": 18585, "surgeon": 9431, "##bb": 10322, "##uary": 24384, "50": 2753, "celestial": 17617, "och": 28166, "sorrow": 14038, "dod": 26489, "hell": 3109, "elected": 2700, "shining": 9716, "arguing": 9177, "ink": 10710, "defensive": 5600, "219": 20636, "shortage": 15843, "snake": 7488, "1901": 5775, "cannons": 17138, "goods": 5350, "[unused161]": 166, "grupo": 26678, "dino": 22412, "librarian": 13850, "[unused491]": 496, "172": 18253, "##de": 3207, "albanians": 25267, "pistons": 24399, "standing": 3061, "cosmic": 14448, "failing": 7989, "##ght": 13900, "predatory": 21659, "##cher": 7474, "336": 27954, "backstroke": 28373, "monitor": 8080, "\u98df": 1978, "smarter": 25670, "fury": 8111, "formulas": 25814, "ensuring": 12725, "buffet": 28305, "##iec": 23783, "goblin": 22639, "fired": 5045, "frontman": 21597, "leaps": 29195, "promoters": 26512, "ruins": 8435, "handy": 18801, "hates": 16424, "sciences": 4163, "supplier": 17024, "calder": 19347, "tyler": 7482, "[unused472]": 477, "ant": 14405, "container": 11661, "stone": 2962, "##nard": 16564, "retrospective": 15354, "kamen": 22099, "290": 17222, "manufacturing": 5814, "ile": 17869, "{": 1063, "exploited": 18516, "buck": 10131, "420": 17442, "hung": 5112, "##otype": 26305, "disorder": 8761, "goldberg": 18522, "patrol": 6477, "kid": 4845, "##llin": 21202, "reduction": 7312, "\u8449": 1943, "thy": 15177, "seychelles": 27438, "##oku": 21940, "stafford": 15064, "love": 2293, "##iri": 15735, "armor": 8177, "peeling": 28241, "subsidies": 21762, "##cts": 16649, "[unused993]": 998, "classics": 10002, "ssr": 20896, "convex": 18309, "submitted": 7864, "craven": 21232, "fischer": 13042, "haynes": 21805, "indirectly": 17351, "maha": 24404, "punches": 17957, "slide": 7358, "\u03b8": 1162, "tombstone": 26671, "##rin": 6657, "gag": 18201, "punching": 19477, "eine": 27665, "fred": 5965, "verification": 22616, "##\u11bc": 30025, "fed": 7349, "hutchinson": 17165, "combines": 13585, "##lic": 10415, "##1": 2487, "limitations": 12546, "telugu": 12180, "domains": 13100, "pickup": 15373, "##ming": 6562, "[unused913]": 918, "happiness": 8404, "1923": 4927, "##cal": 9289, "##side": 7363, "diagnostic": 16474, "wreath": 29586, "##dre": 16200, "adjective": 24931, "evangelist": 24036, "[unused732]": 737, "consulate": 19972, "distribute": 16062, "lengthy": 12401, "taliban": 16597, "angelo": 12262, "fernando": 9158, "[unused163]": 168, "inverted": 20037, "##deck": 26547, "jill": 10454, "sideways": 12579, "ivy": 7768, "chopper": 28057, "[unused566]": 571, "se": 7367, "1774": 17593, "greenhouse": 16635, "##rang": 24388, "calculate": 18422, "##haling": 23896, "consumption": 8381, "surround": 15161, "schmidt": 12940, "\u767d": 1915, "revoked": 22837, "agenda": 11376, "witches": 12566, "cpi": 28780, "frantic": 15762, "traveled": 6158, "##\u0250": 29676, "coats": 15695, "##child": 19339, "gorman": 25693, "expansion": 4935, "rajasthan": 16815, "surgical": 11707, "nothing": 2498, "weaponry": 22711, "##\u5fd7": 30377, "##lster": 29576, "psalm": 22728, "backup": 10200, "midi": 22265, "[unused859]": 864, "monopoly": 15404, "skeletons": 24365, "armistice": 19125, "##sler": 20590, "neville": 14871, "correctional": 20873, "\u5f8c": 1846, "mitchell": 6395, "haunt": 24542, "matteo": 24713, "hallmark": 25812, "[unused840]": 845, "commandant": 15254, "bring": 3288, "ein": 16417, "forgive": 9641, "kiara": 28870, "liter": 23675, "shea": 16994, "##horpe": 22044, "solely": 9578, "italianate": 25302, "listing": 10328, "soprano": 10430, "sector": 4753, "benin": 21164, "initiating": 26616, "snapped": 5941, "hmm": 17012, "##gee": 18372, "##zia": 12871, "bilbao": 25427, "imaginative": 28575, "gripping": 13940, "hardcore": 13076, "orlando": 10108, "mv": 19842, "coe": 24873, "tokugawa": 22065, "unto": 19662, "##ders": 13375, "uncredited": 8104, "nut": 17490, "##zle": 29247, "[unused631]": 636, "disdain": 25134, "espn": 10978, "caller": 20587, "national": 2120, "humble": 15716, "v8": 15754, "commit": 10797, "brasil": 21133, "grapes": 16575, "molly": 9618, "##thor": 27844, "hash": 23325, "tabloid": 24173, "sim": 21934, "thump": 21324, "diffuse": 28105, "lowlands": 26411, "calculation": 17208, "suit": 4848, "mansfield": 15352, "##weather": 28949, "disruption": 20461, "westfield": 26584, "hurling": 10839, "snatched": 14177, "1832": 10212, "hour": 3178, "respective": 7972, "resolved": 10395, "chuckled": 10252, "pity": 12063, "##uh": 27225, "fictitious": 23577, "highlands": 11784, "##vat": 22879, "[unused377]": 382, "mona": 13813, "sighs": 19906, "expression": 3670, "[unused54]": 55, "##ht": 11039, "amara": 28599, "assist": 6509, "\u00b0": 1080, "##aer": 27867, "counts": 9294, "started": 2318, "cullen": 19925, "[unused876]": 881, "##aid": 14326, "regulation": 7816, "##sk": 6711, "[PAD]": 0, "harvard": 5765, "imported": 10964, "[unused337]": 342, "##iensis": 27806, "ministers": 7767, "ferrara": 28635, "manipulate": 17708, "poking": 21603, "solid": 5024, "##hine": 14014, "drawings": 9254, "span": 8487, "pinning": 22866, "herzegovina": 11453, "comedian": 9971, "numbered": 8597, "analyses": 16478, "varsity": 11710, "139": 16621, "revive": 17995, "murals": 19016, "aura": 15240, "sanctions": 17147, "artists": 3324, "ethel": 19180, "tanned": 25973, "suitcase": 15940, "tribune": 10969, "\u52a0": 1779, "[unused686]": 691, "losses": 6409, "cairo": 11096, "boston": 3731, "heirs": 15891, "sp": 11867, "municipal": 4546, "concord": 16557, "weekend": 5353, "##\u53f8": 30317, "superiority": 19113, "pew": 29071, "vampires": 6144, "[unused574]": 579, "coiled": 24599, "grabs": 13273, "labourers": 24043, "affect": 7461, "onward": 15834, "skeletal": 20415, "sovereign": 11074, "shaky": 15311, "phonetic": 26664, "eun": 26070, "diameter": 6705, "##ants": 11390, "sadie": 21330, "appealing": 16004, "##stor": 23809, "chiefs": 9058, "labeling": 28847, "depended": 17292, "##breakers": 27623, "chair": 3242, "phoenix": 6708, "frantically": 16460, "##le": 2571, "wonders": 16278, "strife": 27865, "salty": 23592, "##dome": 26173, "124": 13412, "hollywood": 5365, "relieved": 7653, "horizon": 9154, "##\u0936": 29872, "remark": 17674, "sharon": 10666, "##pore": 26691, "##cut": 12690, "[unused226]": 231, "##\u0e19": 29949, "##oted": 27428, "websites": 11744, "##\u0e40": 29959, "cages": 27157, "slowly": 3254, "moses": 9952, "pip": 28315, "##tok": 18715, "##erland": 22492, "chile": 7029, "##eta": 12928, "ransom": 16540, "rating": 5790, "anterior": 15099, "verve": 29230, "woolf": 29572, "profoundly": 28089, "##llon": 22179, "##50": 12376, "##nical": 20913, "psychological": 8317, "[unused367]": 372, "shift": 5670, "allmusic": 10477, "brenda": 15507, "electronic": 4816, "tense": 9049, "bear": 4562, "pearce": 19560, "##gers": 15776, "sara": 7354, "##smith": 21405, "meaningless": 25120, "galactic": 21375, "anguish": 21782, "crashed": 8007, "futile": 24495, "##ju": 9103, "rag": 17768, "technicians": 20202, "dome": 8514, "balls": 7395, "ro": 20996, "medicines": 20233, "harvey": 7702, "production": 2537, "##hue": 20169, "##of": 11253, "dangerous": 4795, "\u52dd": 1780, "kosovo": 11491, "##notes": 20564, "gal": 14891, "##alic": 27072, "experimenting": 23781, "\u2087": 1554, "lack": 3768, "seat": 2835, "mocked": 24195, "mosquito": 22529, "statue": 6231, "launcher": 22742, "amend": 27950, "alderman": 18977, "browning": 18778, "##uet": 23361, "##iana": 11410, "refers": 5218, "izzy": 16699, "walden": 24834, "##uppe": 29547, "1841": 9840, "flexible": 12379, "longtime": 11155, "assistance": 5375, "skyscraper": 24581, "\u3044": 1647, "wherever": 11210, "fluffy": 27036, "curran": 19649, "covering": 5266, "soloists": 27516, "2000s": 8876, "##lla": 4571, "difficulty": 7669, "economy": 4610, "incorporation": 16935, "clinch": 29119, "satellite": 5871, "buckle": 22853, "coinage": 25396, "[unused395]": 400, "discussion": 6594, "wishes": 8996, "never": 2196, "ivan": 7332, "\u5357": 1785, "valid": 9398, "executing": 23448, "tossing": 15021, "volcanoes": 23694, "mystic": 17477, "##wd": 21724, "fortunately": 14599, "supermarkets": 26676, "arbitration": 18010, "##ell": 5349, "pollution": 10796, "\u00bc": 1091, "cfl": 18830, "bony": 22678, "examination": 7749, "clade": 21697, "larvae": 9673, "ordered": 3641, "##\u21d2": 30119, "byu": 23471, "greenville": 20967, "gemma": 19073, "switch": 6942, "removes": 20362, "colliery": 19462, "classical": 4556, "relatively": 4659, "\u304b": 1651, "neutral": 8699, "##crat": 23185, "analysts": 18288, "sponsor": 10460, "walkway": 19467, "auto": 8285, "determine": 5646, "inexperienced": 26252, "\u00b3": 1083, "5": 1019, "corpus": 13931, "f": 1042, "gael": 28151, "document": 6254, "providing": 4346, "tucson": 17478, "arctic": 10162, "curt": 20099, "turf": 14585, "##hu": 6979, "chung": 15972, "dependent": 7790, "herring": 22103, "isaiah": 18850, "##war": 9028, "bodily": 20445, "listings": 26213, "compose": 17202, "neural": 15756, "proponents": 20401, "francoise": 28979, "raju": 25098, "dora": 21008, "##\u5e78": 30367, "aa": 9779, "kaitlyn": 28584, "spread": 3659, "reform": 5290, "ambiguity": 27637, "shifting": 9564, "clauses": 24059, "begin": 4088, "broadband": 19595, "standardized": 16367, "\u30bf": 1709, "bout": 10094, "whistling": 24350, "biotechnology": 20353, "saliva": 26308, "##bbed": 15499, "blockbuster": 27858, "zombie": 11798, "wai": 23701, "nyc": 16392, "44th": 26409, "tension": 6980, "exams": 13869, "##leg": 23115, "define": 9375, "starved": 26042, "gigantic": 20193, "##tsk": 29064, "settle": 7392, "lie": 4682, "boiled": 17020, "nonfiction": 25753, "##xing": 19612, "1697": 28690, "##\u0b9f": 29920, "controversy": 6704, "##ris": 6935, "usually": 2788, "##ctor": 16761, "guard": 3457, "boxes": 8378, "scaled": 18953, "##\u20a9": 30101, "##dham": 17661, "jase": 18626, "##\u6771": 30405, "1715": 22606, "\u09a6": 1364, "ottawa": 8166, "dub": 12931, "galaxies": 21706, "[unused607]": 612, "boxing": 8362, "##isa": 14268, "[unused664]": 669, "flyer": 23821, "sinks": 23462, "##\u0f56": 29967, "rides": 12271, "crosses": 7821, "disliked": 18966, "ness": 23384, "##star": 14117, "gravel": 11127, "mit": 10210, "##cape": 19464, "ethanol": 22886, "mcqueen": 29265, "sheets": 8697, "remained": 2815, "##zell": 24085, "eileen": 20495, "##hed": 9072, "expectation": 17626, "conjecture": 22647, "philology": 29286, "photon": 26383, "evolve": 19852, "births": 18250, "nodes": 14164, "[unused433]": 438, "grouping": 19765, "herbal": 27849, "they": 2027, "355": 26271, "aids": 8387, "unbelievable": 23653, "mommy": 20565, "##\u306d": 30196, "planetary": 17700, "victim": 6778, "[unused240]": 245, "paso": 17161, "steward": 17946, "jesuits": 20297, "hymn": 14825, "##lain": 15987, "##\u533a": 30308, "mainz": 19876, "##ication": 21261, "programming": 4730, "##bedo": 28759, "elector": 20374, "sis": 24761, "##\u110b": 29999, "alvaro": 24892, "\u02e4": 1154, "##\u99ac": 30506, "barrier": 8803, "affair": 6771, "tubular": 25147, "zeppelin": 22116, "stinging": 22748, "relic": 24933, "lamb": 12559, "mouthed": 20521, "cavity": 17790, "souza": 26598, "##atz": 20501, "armenian": 7508, "competitors": 10159, "##i": 2072, "gray": 3897, "gonzaga": 26840, "##hart": 10686, "[unused759]": 764, "docked": 25727, "##anies": 28064, "gradually": 6360, "coupled": 11211, "##tium": 16398, "resented": 27188, "sonia": 16244, "##hly": 27732, "civil": 2942, "friend": 2767, "habit": 10427, "exhibitions": 8596, "fulfilling": 21570, "imaging": 12126, "[unused687]": 692, "##h": 2232, "chilean": 12091, "bain": 28477, "collective": 7268, "##hane": 28006, "##witz": 15362, "marley": 20326, "amor": 16095, "p": 1052, "##iaceae": 23357, "##sco": 9363, "playable": 16854, "male": 3287, "summary": 12654, "16": 2385, "ball": 3608, "splendid": 21459, "wrexham": 27119, "conceal": 19819, "graphs": 19287, "reclamation": 27389, "rhapsody": 29395, "##keeping": 18321, "brazilian": 6142, "3rd": 3822, "momentum": 11071, "settlement": 4093, "oversight": 15709, "excessive": 11664, "\u5149": 1770, "tiny": 4714, "therapist": 19294, "replied": 3880, "dent": 21418, "departments": 7640, "spp": 26924, "sinn": 26403, "\u306e": 1671, "##ange": 22043, "died": 2351, "discs": 15303, "scrapped": 14553, "artefacts": 25762, "shoulders": 4065, "welles": 23447, "half": 2431, "##\u7cf9": 30460, "humiliation": 21171, "develop": 4503, "custom": 7661, "people": 2111, "26": 2656, "##\u0679": 29838, "##ester": 20367, "\u30ef": 1736, "sleeps": 25126, "cas": 25222, "accent": 9669, "##den": 4181, "##\u05e1": 29804, "422": 29269, "whereupon": 26090, "##eration": 16754, "##ioned": 19798, "ito": 23333, "detachments": 29568, "berg": 15214, "##tails": 22081, "wheel": 5217, "richie": 14411, "stadion": 20756, "undergone": 17215, "##erina": 26052, "mastering": 11495, "profit": 5618, "ones": 3924, "[unused647]": 652, "70s": 17549, "ads": 14997, "personality": 6180, "##\u03b5": 29723, "##duk": 28351, "worth": 4276, "brawl": 23244, "holes": 8198, "mortality": 13356, "7th": 5504, "[unused247]": 252, "neat": 15708, "pistols": 18248, "##vy": 10736, "\u3008": 1637, "##pheus": 22809, "[unused568]": 573, "cam": 11503, "##pen": 11837, "complete": 3143, "\u30af": 1702, "pricing": 20874, "crept": 13147, "##\u6cbb": 30426, "[unused835]": 840, "looming": 23430, "golf": 5439, "##rrier": 27051, "jail": 7173, "magnus": 10045, "werewolves": 18306, "deputy": 4112, "##ies": 3111, "##orth": 28610, "tribunal": 12152, "arising": 17707, "operating": 4082, "grasped": 15517, "combination": 5257, "tibet": 13319, "mode": 5549, "cebu": 23312, "poultry": 22468, "breakout": 25129, "theme": 4323, "thistle": 24328, "leroy": 19103, "speedy": 26203, "ai": 9932, "bees": 13734, "shifters": 21537, "instantly": 6880, "[unused527]": 532, "credited": 5827, "##w": 2860, "disturbances": 24535, "horace": 12757, "apostle": 20121, "##thi": 15222, "ahl": 18347, "awake": 8300, "steady": 6706, "returns": 5651, "unpleasant": 16010, "zheng": 20985, "ky": 18712, "npr": 21411, "##leton": 19263, "[unused272]": 277, "celebrated": 6334, "gemini": 21424, "blended": 19803, "##\u7af9": 30459, "freddie": 15528, "gardens": 5822, "hadn": 2910, "jungle": 8894, "##net": 7159, "sums": 20571, "##eau": 10207, "##lining": 16992, "edmond": 21773, "lump": 15116, "responsible": 3625, "newfoundland": 11944, "[unused937]": 942, "mania": 29310, "tugged": 10621, "newspapers": 6399, "inches": 5282, "sino": 19432, "##aka": 11905, "\u044f": 1210, "july": 2251, "larson": 21213, "swear": 8415, "[unused528]": 533, "surroundings": 11301, "\u300a": 1639, "##bby": 14075, "originals": 23728, "wear": 4929, "medicare": 27615, "highness": 17114, "\u1d62": 1507, "mistakes": 12051, "\u5cf6": 1833, "ship": 2911, "##ur": 3126, "entrepreneurs": 17633, "\u10e3": 1454, "29": 2756, "sink": 7752, "elite": 7069, "valve": 10764, "##going": 26966, "throbbed": 27714, "excavation": 16456, "##sw": 26760, "server": 8241, "practiced": 9051, "cash": 5356, "rangers": 7181, "actor": 3364, "##bola": 24290, "pocket": 4979, "livingston": 14109, "[unused642]": 647, "colbert": 23928, "richer": 26108, "romanian": 7056, "waves": 5975, "st": 2358, "reviewers": 15814, "trust": 3404, "jeremy": 7441, "bumper": 21519, "charley": 20430, "maguire": 26196, "announce": 14970, "urgently": 25478, "##ively": 14547, "envy": 21103, "murmured": 7152, "baroness": 21479, "flicker": 17909, "imp": 17727, "cognition": 26497, "nodding": 11863, "tightened": 8371, "deprivation": 29516, "straight": 3442, "tempered": 22148, "\u0250": 1109, "salim": 27490, "daly": 18509, "subsidiaries": 20178, "fearing": 14892, "toilet": 11848, "lex": 17244, "##omo": 19506, "engages": 24255, "medieval": 5781, "##\u1109": 29997, "muddy": 15405, "##\u0576": 29778, "rebel": 8443, "cordoba": 17986, "downed": 20164, "compelling": 17075, "gazes": 23514, "consequently": 8821, "iron": 3707, "accessible": 7801, "lviv": 23814, "messed": 18358, "sentinel": 16074, "astoria": 29285, "arabic": 5640, "sprint": 9043, "magnolia": 24659, "state": 2110, "ticking": 28561, "transporting": 18276, "weekday": 16904, "rb": 21144, "flattened": 16379, "bois": 19651, "howling": 22298, "##aling": 21682, "##ching": 8450, "prisoner": 7267, "judaism": 13725, "suggestions": 15690, "##\u30ce": 30243, "cubic": 11919, "##hosh": 26643, "sid": 15765, "opposition": 4559, "benedictine": 21139, "shepherd": 11133, "trails": 9612, "caves": 10614, "##oux": 28700, "flanked": 15874, "infant": 10527, "overlapping": 20567, "spider": 6804, "galloway": 22372, "registry": 15584, "[unused944]": 949, "acted": 6051, "list": 2862, "crop": 10416, "##chel": 15721, "##ize": 4697, "##\u221a": 30127, "dinah": 26562, "recreated": 29414, "clicked": 13886, "knit": 22404, "severe": 5729, "welding": 23604, "eligibility": 11395, "excerpts": 24962, "nationalists": 17934, "depicts": 11230, "beetle": 7813, "cc": 10507, "drive": 3298, "tristan": 9822, "broadcaster": 11995, "maestro": 25270, "snow": 4586, "66": 5764, "sack": 12803, "swords": 10689, "dreaming": 12802, "narrow": 4867, "references": 7604, "##usions": 22016, "manson": 21440, "m1": 23290, "diaspora": 18239, "adolescence": 29101, "q": 1053, "trucks": 9322, "\u305f": 1661, "boar": 24187, "bath": 7198, "endorsement": 20380, "charismatic": 23916, "led": 2419, "[unused688]": 693, "croft": 28983, "268": 25143, "kinase": 21903, "supposedly": 10743, "lass": 27333, "302": 22060, "patterns": 7060, "omnibus": 27284, "uniform": 6375, "artillery": 4893, "bombing": 8647, "##ring": 4892, "fast": 3435, "director": 2472, "147": 16471, "presses": 14616, "##45": 19961, "approached": 5411, "teresa": 12409, "100": 2531, "speakers": 7492, "##caster": 25490, "##cked": 18141, "##yp": 22571, "[unused214]": 219, "##ocene": 25793, "queens": 8603, "banging": 22255, "giuseppe": 12574, "##24": 18827, "##orio": 27416, "##orescence": 20030, "tavern": 13090, "##dge": 11818, "reconnaissance": 8967, "eight": 2809, "scaling": 25169, "##ij": 28418, "drought": 14734, "##lia": 6632, "\u0986": 1348, "constantine": 12790, "illustrates": 24899, "citations": 22921, "hannover": 29209, "colours": 8604, "##uca": 18100, ";": 1025, "johnstone": 24160, "dementia": 28767, "pulsed": 24107, "stroked": 11699, "curses": 23897, "##ute": 10421, "exchanges": 15800, "harry": 4302, "feud": 13552, "##\u8033": 30463, "anxious": 11480, "##eia": 27958, "\u5b97": 1821, "1707": 25029, "stepfather": 21481, "##\u30c3": 30237, "##eve": 18697, "ally": 9698, "seaman": 21626, "##oda": 13390, "a1": 17350, "tip": 5955, "##lewood": 26580, "rio": 5673, "johns": 11545, "nods": 11232, "tie": 5495, "easier": 6082, "pursed": 21954, "##ime": 14428, "emergency": 5057, "mutants": 23892, "ranked": 4396, "fooled": 25857, "\u0932": 1334, "maze": 15079, "##iful": 18424, "butterfly": 9112, "[unused60]": 61, "#": 1001, "impulse": 14982, "slayer": 20005, "hubbard": 16580, "yet": 2664, "europa": 12124, "\u1d47": 1497, "hyde": 11804, "left": 2187, "[unused743]": 748, "needy": 23927, "1850s": 16488, "##\u706b": 30432, "delight": 12208, "municipality": 3250, "anders": 15387, "romero": 18290, "neighborhood": 5101, "shirts": 11344, "reverse": 7901, "bells": 10118, "estate": 3776, "steps": 4084, "421": 29403, "survives": 13655, "depending": 5834, "nun": 16634, "allison": 10786, "\u0ba8": 1386, "\u68ee": 1882, "attorney": 4905, "##ls": 4877, "51st": 26017, "##\u30af": 30228, "couple": 3232, "1889": 6478, "reyes": 12576, "##ttered": 14795, "##field": 3790, "hawker": 23937, "##fat": 27753, "sire": 15785, "\u00a8": 1074, "##rop": 18981, "towards": 2875, "##ker": 5484, "montreal": 5548, "proportion": 10817, "##lists": 27103, "##hc": 16257, "bordered": 11356, "##croft": 14716, "bavarian": 15097, "\u6709": 1873, "popularized": 20339, "bullock": 25200, "todd": 6927, "alligator": 28833, "##ous": 3560, "protecting": 8650, "bastards": 21123, "royce": 14789, "four": 2176, "##lan": 5802, "cheerfully": 27403, "bracelet": 19688, "beverly": 12218, "##flight": 28968, "mohamed": 14467, "##cum": 24894, "groundbreaking": 23222, "hercules": 15067, "nacional": 10718, "only": 2069, "automated": 12978, "motivated": 12774, "nakamura": 23981, "robot": 8957, "##\u03c5": 29735, "barker": 12852, "##ffled": 28579, "\u961d": 1970, "traffic": 4026, "[unused345]": 350, "authorities": 4614, "##\u05e0": 29803, "serbia": 7238, "\u201e": 1525, "controlled": 4758, "##camp": 26468, "deterioration": 26118, "utilizing": 16911, "basilica": 13546, "objects": 5200, "##ters": 7747, "their": 2037, "timed": 22313, "costumes": 12703, "##ato": 10610, "##edly": 26207, "journeys": 19147, "sulawesi": 29078, "familiar": 5220, "##emi": 23238, "\u0ba9": 1387, "##ide": 5178, "##fication": 10803, "arise": 13368, "reginald": 14435, "shiva": 12535, "alan": 5070, "30th": 13293, "hiatus": 14221, "robbins": 18091, "\u793e": 1924, "##ries": 5134, "winchester": 12841, "ama": 25933, "holster": 29447, "putnam": 20230, "##ox": 11636, "encompassing": 19129, "cone": 13171, "patton": 18090, "darmstadt": 28381, "furnished": 19851, "##rasia": 27839, "##lund": 18028, "accuse": 26960, "threat": 5081, "##tley": 18492, "\u027e": 1126, "skeptical": 18386, "##rdial": 25070, "tipperary": 17333, "[unused921]": 926, "aspen": 18567, "possessed": 8679, "employer": 11194, "piercing": 14628, "##iger": 17071, "newtown": 26382, "paralympic": 17029, "itself": 2993, "##vus": 27500, "born": 2141, "##itan": 25451, "\u0f53": 1429, "throws": 11618, "geometry": 10988, "manages": 9020, "##peration": 29487, "kathy": 14986, "fixtures": 17407, "hbo": 14633, "king": 2332, "[unused271]": 276, "cinderella": 21686, "glasgow": 6785, "##ides": 8621, "##xious": 25171, "addicted": 23042, "##nsis": 11745, "##lence": 22717, "excitedly": 23885, "semantics": 28081, "wince": 29585, "\u09af": 1371, "olga": 15585, "harder": 6211, "##ey": 3240, "##rien": 23144, "destroyed": 3908, "ricardo": 13559, "##lita": 27606, "fortifications": 14507, "greaves": 27808, "##nem": 25832, "multi": 4800, "[unused73]": 74, "##kel": 11705, "##tara": 27115, "gujarati": 26428, "##inge": 23496, "##station": 20100, "hormone": 18714,
[...]
